00
FE
FE
FF
FE
FE
01
02
0A
36
2E
07
1C
48
28
22
13
2A
18
11
F4
37
19
1C
23
23
16
13
17
1F
3D
06
2C
49
07
1E
03
47
62
35
47
2A
44
4B
37
56
52
4D
57
40
1A
49
3D
41
2F
2C
00
FE
00
01
00
FE
01
02
E1
DD
EA
EE
D4
C4
E3
E0
F0
AD
EA
DA
D5
C7
BD
EE
BE
D3
05
F1
E5
E9
E3
CB
F5
F5
00
F4
FF
00
EE
D4
F7
0B
16
27
15
3C
12
1E
F3
06
16
2A
08
30
2E
10
0D
F1
1C
17
3B
1D
11
ED
D7
03
FE
FF
20
F3
20
13
E0
E6
F4
03
E3
EA
F6
30
F3
EF
34
E8
F8
02
1A
1F
20
20
03
1B
10
18
FC
E3
1C
31
0C
29
12
1E
E9
05
CD
25
1E
25
1D
31
11
1E
FE
11
17
1F
23
36
3F
1C
0A
49
28
05
F0
29
25
14
F9
E6
03
FB
3D
F7
F4
1B
EC
E7
EE
EF
F5
0A
01
15
CE
ED
D0
F0
E7
D1
E7
16
0D
E4
1E
06
E1
E5
09
FA
FC
0B
19
04
EE
21
F2
EE
F7
2A
18
2C
2A
22
2F
0B
28
20
42
3E
3C
2B
21
2F
32
40
16
3D
22
40
42
1F
30
05
31
3B
16
1B
1D
2E
20
EE
EA
F7
D5
D0
F1
00
EE
EC
EF
E2
F7
2B
D1
04
18
EE
04
F9
18
EC
FD
2A
D6
00
E4
19
20
20
1D
18
D6
F8
36
2E
0A
3B
13
16
07
EB
29
40
0A
3E
2E
0B
1C
F2
1B
FF
1F
41
09
26
22
1F
F8
32
2F
3A
33
13
FA
4D
2B
CD
DB
DF
0E
F7
EF
E8
FA
F7
EF
D6
0B
EA
DB
09
0E
19
DE
EC
FA
CA
0D
F6
0F
28
2E
0A
17
14
03
27
1D
1D
0B
1B
18
15
25
27
03
32
43
2A
2A
29
E5
20
3D
1E
38
2D
21
F1
EB
26
20
25
24
0C
FE
EA
FF
FE
00
01
02
FE
01
02
E2
C3
B9
C9
DE
AF
D2
C2
EE
C6
B8
D9
D2
D2
B6
DF
05
0A
FE
01
F3
00
DB
EA
F0
1A
1B
26
07
20
F6
14
20
08
FF
08
09
10
FE
0A
17
03
F2
05
09
EE
CF
18
FE
00
FE
FE
01
02
FF
FF
D5
09
D9
DA
F5
16
00
EF
EF
20
01
F5
D3
E4
ED
24
12
10
EE
FB
D8
DD
DE
EA
0F
31
F6
F3
E0
01
DC
F7
15
30
16
05
F6
F4
08
12
32
2B
1B
1E
16
08
19
12
46
3C
14
1D
20
2A
FC
38
26
2A
48
40
1C
3A
1A
1F
E2
09
05
E4
0D
DF
04
37
0C
E1
F9
1A
06
E6
F0
15
05
0A
07
E8
D5
E4
F1
F1
FB
F9
F9
D2
F1
E9
E7
ED
1E
24
F6
F2
C8
ED
14
1B
15
00
15
FE
F5
15
13
0F
DC
1C
0F
05
FC
28
F2
F0
F7
F9
17
11
1F
1C
D3
05
0F
0E
DA
18
01
E4
15
F7
E0
0C
E0
E0
CF
D9
06
DA
F9
01
04
DE
E1
DE
F8
D3
3C
FC
F0
F3
ED
F4
D9
09
12
05
21
F9
FD
FA
20
03
29
F2
25
F2
FF
10
09
E5
0F
28
2B
15
15
02
41
2C
2E
39
07
0F
04
04
33
03
F4
E4
07
F3
EC
F5
F2
E9
F8
08
E4
E9
D9
F0
DD
0C
0B
FB
17
E4
F1
E9
D9
F0
0A
27
01
0B
E0
C4
E9
01
3A
20
06
27
EF
E4
F9
2D
FD
33
08
F6
EB
FC
00
24
27
15
21
FB
14
28
00
E6
0B
1C
39
23
29
3F
3C
F1
D3
E6
E2
ED
D9
EB
D6
11
26
EE
EE
0D
E4
F2
D9
F8
07
E2
E3
EF
E2
DC
F2
F2
FD
E1
FB
E8
E6
EE
FC
2E
FF
F5
F2
FC
FA
DF
2F
F9
12
2B
20
3E
F6
FF
01
4F
18
11
19
2B
18
16
F2
29
F1
11
10
3D
19
46
05
48
FF
02
02
01
FF
00
00
FE
21
F1
FC
00
E9
CA
F3
06
13
FA
04
06
1B
E0
11
FA
F7
00
03
04
0B
FC
E4
1C
E2
C5
0A
03
18
D4
C8
F5
D3
F6
D3
C2
DC
C1
C2
D6
B2
CE
F2
DF
CE
CB
D7
E1
02
02
01
00
00
01
FE
FE
21
32
20
16
33
45
26
23
17
5C
25
2C
36
3F
48
1C
3E
3D
33
21
22
2B
26
3A
0D
1A
07
13
15
11
1A
2C
0D
03
F2
EA
FE
CC
F5
EF
0E
00
F6
DD
01
D9
E3
EE
F4
16
E9
EA
CB
EA
F2
15
2B
00
07
08
F9
11
DF
ED
20
20
1B
17
22
2C
0B
DC
18
26
D4
27
1C
0E
F7
F1
E2
F0
05
F7
07
F8
1C
27
EE
CD
04
E5
FF
F0
1F
00
39
F0
E9
E6
E9
DB
00
E3
0F
FB
F8
E3
E4
DB
CE
ED
FE
DA
DB
FB
14
E9
DC
F0
0C
18
FF
05
B6
0A
12
E3
2D
23
22
2A
23
14
1E
0B
35
1A
3C
1B
21
38
1E
02
08
28
EB
FF
29
1F
FB
0F
0E
F6
F9
07
16
E9
12
1C
17
DE
EF
D7
DD
DF
D9
F8
E6
DC
C5
C4
CA
E2
E4
DC
EB
D0
F4
C4
F0
D5
C9
E7
DA
0F
DB
C6
F2
F9
F2
E0
E3
17
1C
1C
33
37
12
0F
15
1E
1F
2C
21
DE
31
08
EE
27
08
13
F2
20
0C
E6
2B
02
22
EF
E3
E3
E8
EF
3C
1D
DF
E0
0B
CE
FC
FE
04
30
DD
CE
0A
DB
E0
00
E7
19
E6
02
E7
CC
04
E8
DF
DD
14
D9
D7
CA
D1
F2
0E
C8
E6
3E
40
31
23
26
14
20
15
19
27
47
17
31
29
0B
FA
EF
39
37
1A
55
FE
04
FF
ED
E8
02
F8
EF
00
DF
F7
F1
14
07
F7
F2
E4
E7
08
D5
CB
F1
DE
E3
21
D9
CD
ED
E2
D4
EC
11
30
DA
E9
F4
D6
F5
06
19
00
01
00
00
01
FF
01
02
2C
52
4B
54
29
59
31
48
24
49
5F
3B
3A
3F
62
31
0F
1D
17
0E
1F
1E
3A
32
28
0C
0B
02
2B
FF
28
12
0D
12
18
16
23
13
2C
1F
03
17
19
09
24
41
50
12
01
FF
00
01
FF
FE
FF
FF
2D
F9
2A
25
0D
F5
00
0B
17
DA
12
18
36
24
13
E6
F2
F4
1C
12
36
27
27
1C
00
D9
1C
25
2A
10
2A
13
F7
D8
F9
02
27
28
F7
FF
CF
EA
F8
F2
00
09
F0
F3
BB
C5
FF
FA
EA
D2
1C
CA
D8
DF
BF
BE
F6
D5
F0
E3
27
F4
03
1C
F4
28
F9
C8
FF
22
0D
E9
14
20
19
EE
FF
01
00
23
2D
27
17
1D
0C
12
18
44
22
25
1F
20
DC
E5
10
1C
4B
2B
F2
EB
F2
06
FA
0B
23
07
F9
F2
2A
FA
FC
0C
12
DF
28
12
0E
11
02
05
F0
FD
37
F9
0C
F5
32
FA
01
31
FA
0E
29
FD
25
2A
3A
27
07
2F
18
0D
05
29
31
2D
14
36
C9
0E
16
14
29
15
35
FD
F2
FF
F7
1B
09
0E
ED
09
DF
14
DE
17
10
F8
0F
1D
09
DC
DF
06
F4
09
D6
E4
F2
DC
06
0D
18
15
EC
20
16
2B
03
10
19
11
0D
16
0A
FD
27
1E
3C
19
26
F7
03
1F
FE
3A
1E
1D
3A
1C
F8
E6
11
03
2D
4D
24
05
D2
DD
03
DE
29
29
0E
D7
06
DA
06
1C
1C
18
09
E4
DF
06
03
12
FC
DB
06
1C
FC
E8
C7
FB
D6
C8
CE
11
30
23
25
14
37
1F
3E
EF
DB
1B
20
F4
26
24
3B
15
F8
2E
2B
1C
1F
33
14
15
09
24
1A
26
35
2E
1C
EE
0D
11
0C
0B
06
3E
E9
1B
F1
DA
ED
D6
15
13
10
C1
F4
F8
FD
D4
02
0A
34
F3
19
05
F8
CE
02
E0
20
F2
00
02
00
00
FF
02
FE
FE
0A
39
33
07
1D
4F
2B
20
14
2C
1B
12
F2
3B
19
1F
26
25
19
12
16
1F
3F
06
31
4F
09
1E
03
49
65
36
49
2A
48
4F
3A
5B
53
50
5D
42
1A
4D
41
45
32
2A
00
FE
01
01
01
01
FF
00
DD
D9
E6
ED
D0
C4
E4
E2
F2
A8
EA
DB
D4
C4
BB
EF
BC
D0
04
EE
E8
EA
E5
CA
F4
F3
02
F3
00
01
F2
D0
F9
0B
18
2B
15
42
13
1C
F0
08
15
2E
09
34
2F
11
0B
EF
1E
18
3E
1E
14
EE
D4
05
FB
FE
23
F0
20
14
DD
E7
F2
02
E4
EC
F7
2E
F5
EC
38
E9
F8
01
19
1E
24
1F
06
1D
10
16
FE
E2
20
35
0B
2A
14
1C
E8
02
C9
25
20
27
21
34
15
1F
00
13
18
21
28
38
45
1C
0B
4A
2B
09
F1
2A
26
13
F9
E3
07
FB
3E
F9
F7
21
ED
E6
ED
F0
F6
0B
01
18
CB
EA
CC
F4
E5
CE
E8
19
0D
E2
1F
08
E0
E3
0B
F7
FD
0B
1A
05
F0
21
F3
EB
F3
28
1E
32
2B
22
31
09
29
23
46
41
3D
2C
22
2E
32
46
18
3E
24
42
42
1E
32
04
30
3E
14
1A
1C
2D
21
F1
E6
F8
D2
CE
EF
00
EB
E8
F0
E1
F4
2B
D0
00
1A
EC
04
F8
1A
EC
FE
2A
D4
03
E3
1B
24
26
1D
1B
D4
F5
38
30
09
3E
12
19
04
E6
2A
42
0A
40
2C
0E
1E
F3
18
00
20
45
08
28
24
23
F5
32
31
3D
34
17
FC
53
31
C9
D8
DE
11
F7
F0
E8
FB
F7
F0
D4
0D
E7
D9
08
12
19
DC
EB
FB
C7
0A
F7
11
2C
31
0A
19
14
04
26
1D
21
0A
1A
17
16
24
2A
03
35
44
29
2E
2C
E4
1E
3F
1F
3B
2D
21
F2
EB
26
1F
24
28
0C
FE
E9
FE
FF
01
00
FF
FE
01
00
E3
C2
BA
C7
D9
AC
D4
C2
F0
C2
B4
D4
D2
CF
B2
DE
06
07
01
02
F2
FD
DB
EA
EE
1B
1F
28
07
22
F5
16
22
0B
00
08
08
14
FE
0B
16
05
F1
04
0B
EF
CD
19
02
02
00
00
FF
01
00
FE
D1
06
D3
D8
F2
14
FF
EF
EB
23
03
F1
D2
E0
EC
22
13
10
EF
F8
D3
DC
E0
E9
10
34
F6
F1
DE
FF
D7
FB
11
35
15
04
F3
F1
0A
14
35
2F
1D
1E
16
08
19
12
49
41
18
1F
22
2D
FD
37
27
2C
4A
47
1F
3A
1B
22
DE
0D
05
E7
0E
E1
08
37
0A
E2
F9
19
04
E5
ED
14
08
0B
0A
E7
D7
E5
F0
F1
FA
F9
FB
CE
EF
E6
E6
EA
23
23
F8
F3
C3
EB
14
1E
13
00
19
FE
F2
17
15
0F
DC
21
0E
05
FC
28
F3
ED
F9
F6
18
12
20
21
D3
04
10
11
D6
1A
05
E4
17
F6
DE
0E
DC
DF
CD
D9
08
D6
F9
03
01
E0
E0
DC
FA
CF
3E
FC
ED
F1
ED
F6
D7
09
15
07
22
FB
FD
FB
22
00
2E
F1
27
F2
FE
12
0C
E7
10
2C
2E
18
15
02
43
2D
32
3E
0A
0E
01
05
39
04
F4
E1
0A
F3
ED
F4
F2
E7
F9
0C
E3
E8
D4
ED
DC
0D
09
FC
16
E3
F1
EB
D7
F2
0C
28
FF
0B
DF
BE
EA
00
3D
22
06
2A
F0
E2
F9
32
FE
36
07
F3
EA
F9
FD
22
29
13
21
FC
13
2A
00
E7
0A
1D
3B
26
2B
3F
40
EF
D1
E4
E2
EE
D7
E9
D4
11
28
EA
ED
0F
E4
F0
D7
FA
09
DD
E1
EE
E0
DA
F5
EF
FC
E0
FB
E6
E6
EE
F8
2D
FC
F9
F1
FC
FC
DC
32
F8
13
30
21
40
F5
03
FE
50
19
12
18
2E
19
19
EF
2E
EF
15
11
43
1D
47
06
4C
02
00
02
FF
FF
FE
00
01
1F
F3
FB
00
EA
CB
F4
05
12
FA
05
05
1B
E3
10
F9
F5
01
03
06
0C
FC
E6
1C
E3
C7
08
03
17
D5
CA
F5
D2
F6
D4
C4
DD
C0
C2
D4
B3
CF
F2
E0
CF
CE
D9
DF
00
00
00
01
00
FF
01
01
22
2D
22
18
33
43
24
1E
14
56
22
2B
34
3E
47
1D
3B
39
31
20
20
26
25
38
0C
16
06
11
13
11
19
2C
10
05
F2
EA
FF
CB
F9
F1
0F
FE
F5
DF
00
DA
E2
F3
F5
15
EC
E7
CB
EA
F0
17
2E
00
05
07
F8
0D
E0
EA
1D
1F
1B
18
25
2B
0A
DD
17
24
D6
25
18
0D
F8
F3
E2
F2
05
F7
0A
FA
1A
25
EF
CB
03
E3
FE
F0
1F
FF
37
EE
E8
E8
E9
DC
02
E5
0C
F9
F9
E5
E7
DB
D2
EC
FF
DB
DB
FB
13
E9
DF
F3
0E
17
FE
05
B8
08
14
E4
29
21
22
29
22
16
20
0A
34
18
39
18
1F
3A
20
04
08
2A
ED
FD
28
1F
F9
0D
0C
F5
F8
05
12
EA
12
1D
18
DE
ED
DA
DE
E5
D8
F7
E6
DE
C5
C5
CC
E2
E3
DC
EA
D0
F4
C7
EF
D6
CB
E9
DA
10
DD
C7
F1
F9
F1
E3
E2
16
1B
1B
31
33
15
0F
18
1D
1C
2B
22
DF
2D
0D
EE
25
05
10
F4
1F
0D
E6
2E
04
23
EF
E4
E5
EB
EE
3D
1C
DE
E1
0C
CE
FE
FD
04
31
DE
D0
0A
DC
E3
02
E7
1A
E9
04
E7
CC
05
E9
E0
E0
10
D9
D8
C9
D3
F2
0B
C8
E6
40
3D
33
22
23
15
22
15
18
27
46
17
30
25
0B
FA
F3
37
37
1B
51
FE
04
FE
EF
EA
04
FA
EF
01
DD
F7
F1
16
09
F9
F1
E4
E7
08
D8
D1
F2
E0
E3
21
D8
CF
EB
E2
D5
EC
0A
2D
DB
E8
F2
D9
F4
05
18
01
FE
FE
FF
FE
FE
00
FF
2E
4F
4C
50
2A
53
31
47
24
4A
5B
3A
3A
3E
60
31
10
1B
16
0F
20
1C
3C
32
27
0B
09
03
29
FF
27
11
0B
12
18
17
21
13
2B
1F
02
16
19
0A
24
3E
4D
13
FF
02
FF
FF
00
FF
00
00
2B
F9
2C
28
0E
F3
FF
0D
18
DC
0F
1B
35
24
14
E6
EF
F5
18
10
37
26
28
18
FB
DB
1F
2A
28
0D
2C
12
F8
DA
FA
05
27
25
F5
FF
D3
EA
F6
F2
FF
06
EE
F6
BB
C6
FE
FB
E8
D7
19
C9
DC
E0
BE
C1
F8
D5
EE
E0
2A
F3
02
1C
F5
26
FC
C8
FA
1E
11
EA
10
20
1B
EE
00
FE
01
24
2D
25
15
1A
0A
11
16
46
20
23
21
21
E3
E7
13
1C
49
27
F1
ED
F2
0A
FC
0C
24
06
F5
F5
27
F9
FA
0F
11
DE
28
15
0D
0F
00
05
F0
FD
35
FF
0A
F4
2F
FA
05
34
FA
0F
27
FE
25
2B
3B
26
07
2F
15
0A
06
29
30
2A
13
36
C9
0E
17
11
28
17
34
FD
F3
FC
F9
1C
09
11
ED
0B
E3
16
DE
16
11
F9
0E
1C
08
DA
E0
07
F5
07
D7
E6
F3
DD
06
0C
18
13
EE
20
15
28
03
0F
19
0F
0C
18
09
FB
29
18
3D
18
27
F8
04
1C
00
35
21
20
3A
1F
F6
E6
0F
03
2D
4A
23
0A
D2
E1
04
DD
28
2B
0E
D8
04
DB
07
1B
1D
1A
07
E5
DF
06
03
12
FD
DD
09
1C
FA
EA
CC
F9
DD
CA
CF
11
2E
25
24
11
35
1D
3D
F0
DB
1C
21
F3
22
22
36
16
F7
2B
2A
1A
25
33
16
1A
06
25
18
27
34
2E
1E
EF
0E
12
0E
09
08
3C
E8
1A
F1
DA
EC
D8
14
12
0D
C1
F5
F8
FC
D3
00
09
32
F2
1A
07
F8
CE
01
E0
1F
F3
02
02
FE
FF
01
01
01
FF
0A
36
2E
0A
1B
49
2B
20
10
29
16
12
F5
39
18
1E
24
22
16
14
17
1E
3C
07
2F
4C
08
1E
04
45
61
33
47
2C
48
4D
35
58
51
4F
5A
41
19
48
3E
43
30
2C
00
FE
01
FE
01
00
FF
01
E0
E3
EA
EF
D0
C3
E5
E1
EE
AD
EB
DC
D5
C8
BC
EE
BC
D1
01
EF
E4
EA
E6
CC
F6
F6
FF
F3
FC
FE
F1
D2
F5
0D
17
29
15
3D
0F
1C
F1
07
15
29
06
31
30
10
0D
F0
1D
17
3E
1B
0F
ED
D8
05
FD
FF
1E
F2
22
15
E0
E8
F4
01
E3
EB
F7
2C
F3
ED
36
E8
F7
03
1A
20
22
20
04
19
11
15
FC
E2
1F
35
0A
26
13
1D
EB
05
CB
22
20
27
1D
33
13
22
FE
10
16
20
23
37
40
1B
0E
46
29
06
F2
2C
24
13
FA
E7
06
FA
3D
F7
F6
20
EF
E8
F1
EE
F2
07
FF
13
CF
EA
CF
F2
E5
D2
E9
19
0D
E2
1F
09
E3
E5
09
F8
FC
0C
19
05
F0
23
F4
EA
F5
2A
19
2E
27
20
31
0C
28
21
45
41
3C
28
24
2E
30
42
15
3D
21
42
40
1F
2F
03
2F
3B
17
1A
1A
2F
23
F2
E6
F6
D4
CE
EF
00
EC
EC
EF
E5
F7
29
D2
03
1A
EB
07
F9
1B
ED
FD
2A
D7
03
E6
19
20
22
1C
1A
D6
F9
34
30
0C
39
14
18
06
E8
2C
43
0A
3F
2C
0D
1B
F4
1C
00
1E
43
08
28
25
1E
F6
33
32
3A
31
14
FD
50
2F
CA
D9
DF
0E
F8
F1
E8
FB
F6
F1
D8
0C
EA
DD
08
11
19
DE
EE
FB
C9
0C
F5
0D
2B
30
0A
18
15
04
25
1B
1C
0A
1A
18
14
25
25
FF
37
44
2B
2C
29
E2
1F
3F
1F
39
2D
20
F1
ED
25
1F
25
26
0A
00
E9
00
01
FF
01
FE
01
00
00
E3
C4
B9
C9
DB
AF
D2
C4
EF
C3
B9
D7
D4
D1
B8
DE
04
0A
00
00
F3
00
DC
EC
F0
17
1F
25
0A
21
F5
14
1E
09
02
05
09
13
00
0D
17
03
F1
04
0B
ED
CF
17
00
02
FF
FF
02
FE
FF
02
D7
08
D8
DB
F6
14
FE
EF
EB
22
01
F1
D3
E3
ED
23
15
10
ED
F9
D5
DC
DF
EC
0F
33
F3
F0
DD
FE
DA
FB
13
30
15
04
F3
F3
09
11
31
2D
1B
1D
15
06
1A
13
48
3B
14
1F
20
2F
FF
36
22
2C
48
44
1C
3A
17
20
E2
0D
08
E4
0F
DE
05
33
0A
E5
FC
16
03
E3
EF
17
09
08
07
E5
D7
E5
F1
F2
F9
FB
FA
D0
EF
EA
E7
ED
1F
23
F8
F1
C8
ED
14
1C
14
00
18
00
F2
17
11
0F
DB
1E
0E
05
F9
28
F1
F1
F7
F8
18
12
1E
1E
D1
07
10
11
D5
19
03
E5
17
F8
E0
0F
DF
E0
CD
DC
08
D8
F7
01
01
DC
E0
DF
F7
D1
3C
FD
F0
F1
EC
F6
D8
0C
15
05
1F
FB
FA
F9
1F
03
2C
ED
28
F4
FE
11
0B
E7
0E
2C
2A
16
16
02
3F
2E
2D
3C
08
0F
01
06
35
02
F2
E3
08
F1
EC
F5
F2
EB
F7
0C
E7
E8
D4
EE
DD
0A
0A
FE
16
E6
EF
E8
DB
F1
0C
27
01
0C
E1
C2
EA
FF
3B
20
04
28
EE
E4
FA
30
00
35
06
F6
EE
FA
00
22
26
12
23
FB
11
29
FE
E7
0A
1E
38
21
28
40
3F
EE
D5
E4
E2
ED
D8
EC
D3
0E
26
EC
EE
0D
E4
F1
D6
F8
07
DF
E4
EE
E2
DC
F4
EE
FC
E0
F9
E6
E6
ED
FC
2A
FF
F6
F2
FB
FA
DC
30
F7
10
2D
22
40
F8
00
00
4F
18
10
1B
2D
17
18
EF
2B
F3
12
10
41
1C
46
02
49
01
FF
FF
FE
01
00
00
00
0B
38
2F
06
1D
4B
2A
20
10
2A
1A
13
F4
38
1A
1D
25
22
16
12
17
1E
3C
06
31
4A
07
1C
02
46
65
35
4A
2A
48
4E
3A
5A
55
4F
57
40
1B
4D
3E
46
34
29
00
FF
02
00
02
FE
01
00
E1
DA
EA
ED
D0
C3
E5
E2
F0
A9
E7
DB
D3
C8
BC
EE
BC
D1
04
F0
E4
EA
E5
CC
F7
F3
02
F5
FC
FE
EF
D4
F7
0D
15
29
13
3D
11
1E
F1
08
14
2B
05
32
2E
12
0B
EF
1B
18
40
1E
12
F0
D6
04
FD
01
20
F1
23
12
E0
E5
F4
03
E3
EC
F8
2C
F2
EB
37
E9
F5
02
1B
1C
20
1D
05
19
0F
16
FD
E2
20
35
0D
2B
11
1C
EA
07
C9
23
1F
27
1F
35
16
22
FE
11
19
20
26
35
42
1E
0D
44
2B
05
F2
2A
25
13
F8
E5
05
F9
3B
F6
F4
1E
EE
EA
EE
EF
F5
0B
02
12
CE
EA
CC
F1
E2
D2
E7
17
0E
E5
1C
0A
E3
E3
0B
F6
F9
0D
1A
05
F0
23
F4
EE
F2
2A
1B
31
2C
20
33
09
27
1F
43
3F
3D
2A
22
2E
31
43
17
41
23
42
43
1E
32
05
31
3B
17
1A
1E
2E
21
F0
E7
F6
D4
CE
EE
FF
ED
EB
EE
E2
F6
29
D1
04
1A
EB
04
F7
1A
EE
FF
2B
D5
01
E3
1C
1F
22
1D
1B
D3
F6
37
31
0C
3D
14
18
06
E7
2D
44
09
3E
2E
0B
1F
F2
1A
FE
1F
45
07
26
24
24
F8
33
2F
3C
32
18
FE
51
2C
C8
D9
DC
10
F4
F1
E7
F9
F6
F0
D4
0C
E9
DC
08
0F
18
DE
EB
FB
C7
0D
F5
0E
2B
31
0A
18
15
02
26
1C
21
0B
1A
15
15
25
28
02
35
43
2C
2C
2B
E5
1E
40
1C
37
2D
20
F5
E9
27
20
22
26
0C
00
E8
02
FF
FF
02
FE
00
01
01
E3
C3
B9
C9
DA
AE
D2
C4
EF
C0
B6
D5
D1
D0
B7
DE
05
07
01
FF
F2
FF
DC
EC
EE
1B
20
27
07
21
F6
15
1F
0B
01
06
08
12
FE
0E
16
06
F0
03
08
EE
CE
1A
01
00
FE
FF
01
00
FF
02
D3
06
D9
D8
F5
17
00
F1
ED
1F
02
F0
D1
E4
EB
21
11
11
EF
FB
D7
DA
DD
EB
0F
32
F4
F2
DD
01
D7
FB
10
32
14
04
F5
EF
0C
0F
34
2D
1C
1D
14
07
19
0F
4A
3F
17
1E
20
30
FC
37
26
2B
4B
43
1F
3B
18
1F
DD
0E
08
E7
0D
E1
07
34
08
E2
F9
17
06
E7
ED
16
04
09
09
E7
D6
E6
F1
F4
F9
FA
FA
CD
EE
E7
E5
EC
1F
25
F7
F4
C4
EA
17
1B
13
FC
19
FE
F2
15
11
11
DC
21
10
03
FA
28
F1
EF
FA
F6
19
12
20
1D
D1
04
0E
13
D6
18
05
E3
15
F7
DE
0C
DE
E1
CE
DA
05
D7
F8
FF
01
DE
DE
DD
F8
D0
39
FD
EC
EF
EB
F4
D9
0C
14
07
21
FC
FD
F8
1F
02
2C
EE
28
F4
00
14
08
E7
0F
2A
2E
16
14
02
43
2F
31
3E
07
0D
04
06
35
02
F4
E3
0B
F2
EB
F2
F0
E9
FA
08
E5
E6
D4
EF
DD
09
0A
FA
14
E2
EF
E8
D9
F3
09
2A
01
0A
E0
C2
E9
01
3C
1F
04
2B
EE
E2
F8
30
FD
32
07
F3
EC
F9
01
25
28
13
20
FC
13
2C
FE
E8
08
1F
3B
23
2B
3F
3C
EF
D4
E5
E2
ED
D8
E9
D3
10
27
EA
EF
0E
E4
F0
D6
F8
07
E1
E2
ED
E4
DB
F4
EF
F9
E0
FA
E8
E7
EE
F6
2C
FC
F9
F5
FD
FC
DE
2F
F8
13
2C
21
3D
F6
01
00
50
19
0F
1C
2D
18
19
F1
2C
F1
14
12
3F
19
48
06
4B
FF
FE
01
FE
01
00
02
00
0A
35
30
07
1C
4A
26
20
10
28
16
11
F3
36
18
1F
22
22
16
14
17
1F
3C
05
2C
4B
08
1C
03
46
60
31
48
29
45
4D
38
57
53
4E
56
3F
1B
4C
3F
43
31
2C
FF
FF
00
00
01
01
00
FE
E1
DE
E9
EF
D1
C6
E3
E0
EE
AB
EB
D9
D8
C8
BB
EF
C0
D0
05
F1
E5
EC
E5
CE
F5
F2
03
F4
FE
00
EE
D5
F5
0D
17
2A
11
3D
0F
1D
F0
07
13
2A
08
32
2F
11
0B
F2
1E
1A
3C
1C
11
EC
D8
03
FB
01
1F
EF
20
13
DE
E6
F3
02
E3
ED
F7
2D
F4
EC
35
E9
F5
00
18
1E
23
1E
06
19
10
17
FA
E2
1D
34
09
2A
15
1D
E9
03
CC
21
21
25
1C
32
14
1F
00
13
15
21
26
36
40
1C
0B
42
2A
05
F3
2C
25
15
F6
E3
05
FC
3B
F6
F6
1F
EE
E9
F0
F0
F4
0A
02
15
CE
EA
CF
F4
E6
D3
E5
19
0C
E3
1D
07
E1
E7
0B
FA
FC
0C
19
03
F1
21
F5
ED
F3
29
19
2C
28
1E
31
0B
28
21
45
3E
39
28
22
2F
30
44
18
40
21
41
41
20
2F
02
30
3A
14
18
1C
2D
20
EF
E6
F5
D4
CD
F2
FF
EF
EB
EF
E3
F6
29
D4
02
17
EB
04
F6
1A
EC
FE
27
DA
02
E4
19
21
21
1E
19
D4
F9
35
2F
09
3A
12
15
07
E8
2A
3F
0A
3E
2C
0A
1E
F1
18
00
20
44
09
27
23
22
F6
30
32
3A
31
17
F9
4F
2E
CC
DA
DF
0E
F7
EF
E8
FA
F4
F1
D6
09
E9
DA
08
0F
18
DE
EA
F9
C8
0B
F5
0D
29
2D
08
1A
15
02
25
1D
1E
09
19
18
14
23
25
01
33
43
29
2B
2A
E3
1C
3D
1F
39
2F
21
F2
EC
23
1F
22
25
0D
00
E9
02
FE
FE
02
00
FF
02
FE
E2
C3
BA
C8
DB
AD
D2
C3
EE
C3
B6
D6
D5
D4
B6
DD
06
07
01
FE
F1
FF
DC
EC
F0
19
1E
24
0A
21
F5
15
21
09
01
08
09
13
FD
09
16
04
F0
04
09
ED
CF
16
02
02
02
02
FF
01
FF
FF
D3
06
D7
D9
F5
16
00
EF
EE
22
01
F2
D3
E1
EE
25
15
0F
EF
FA
D5
DB
DD
EA
0F
33
F6
F0
DE
FF
D8
F7
11
30
15
02
F4
F2
08
10
35
2A
19
1B
14
06
1A
11
4B
3E
16
1B
1E
2B
FE
35
23
2A
4A
44
1C
39
19
20
E0
0A
07
E6
0F
E0
07
34
0B
E4
FA
18
02
E7
F0
16
07
09
06
E7
D5
E3
F0
F4
F9
FB
F9
D1
EF
E9
E6
EB
21
24
F6
F2
C6
EA
14
1D
13
FE
15
00
F4
15
14
10
DB
1F
10
04
F9
28
F2
EF
FA
F9
1A
11
1E
1E
D2
03
0C
0F
D8
19
05
E4
19
F6
E2
0C
E0
E1
CE
DC
06
D6
F9
02
04
E0
DF
DF
F7
D1
39
FB
EF
F0
EE
F5
DA
09
12
05
1F
FC
FA
F7
20
00
29
EF
28
F2
FD
12
0B
E4
0C
2A
2E
16
12
01
40
2D
30
3E
07
0D
02
04
36
FF
F3
E3
08
F2
EB
F5
F1
E9
F8
08
E5
EA
D4
ED
DD
08
0B
FB
17
E4
F1
E9
DA
F2
09
29
FF
0D
DF
C2
EB
FF
3A
20
05
28
EF
E0
F5
2E
FF
35
03
F4
ED
FB
FF
25
28
15
22
FC
13
29
00
E9
09
1D
39
21
28
3C
3D
F0
D5
E7
E4
EF
D8
EB
D5
11
28
EA
F1
0E
E5
F1
D7
FA
09
E0
E4
F1
E3
DA
F3
F0
F9
DF
FB
E6
E5
ED
FA
2C
FE
F5
F1
FD
FD
DF
2E
F9
14
2B
20
3F
F8
01
FE
4E
18
0F
19
2C
1A
18
F1
2B
F1
14
10
3F
1A
46
07
4A
00
00
FE
02
02
01
FF
FE
0B
3A
32
09
1E
52
2C
22
11
2A
19
13
F4
3B
18
22
26
26
16
14
18
1F
40
08
30
4E
06
21
04
47
63
34
49
2B
49
50
39
5A
55
4F
5A
42
1A
4C
3F
43
31
2B
FF
01
00
FF
FF
01
FF
01
DE
D7
EA
ED
CE
C0
E3
E2
F1
A8
E9
DB
D6
C3
BC
ED
BA
D1
04
F0
E4
E9
E4
CB
F6
F2
03
F4
FF
00
EF
D2
F5
0C
17
2B
15
41
11
1F
EF
08
17
2D
05
34
32
10
0D
EF
1D
19
3E
1D
12
EE
D5
04
FC
00
22
F0
23
15
DF
E3
F2
03
E2
EA
F6
2D
F5
EC
37
E9
F8
00
18
20
25
22
05
1C
11
19
FB
E2
22
37
0B
28
16
1D
E8
06
C7
25
23
26
1F
37
16
22
FE
13
18
24
26
35
42
1D
0C
47
2A
08
F1
2C
27
12
F9
E2
04
FC
3D
F7
F3
20
EE
E8
EF
ED
F3
08
FF
15
CC
EA
CC
F1
E5
D2
E8
1A
0F
E2
1D
07
E0
E6
0E
F6
FB
0F
1D
08
F2
23
F3
ED
F3
2A
1C
32
29
1F
32
0C
2C
20
44
3F
3A
2C
25
30
32
44
17
42
23
45
42
1F
30
03
31
3B
18
1A
1B
31
21
F1
E7
F4
D1
CC
F1
FF
F0
EA
EE
E3
F4
29
D2
03
18
E9
05
F7
1A
EF
FD
29
D6
00
E5
1C
23
22
21
1C
D5
F8
35
33
0B
3B
10
19
07
EA
2B
41
0A
3F
2E
0A
1E
F4
1B
01
20
43
09
29
24
22
F6
35
31
3B
32
17
FC
51
30
C8
D8
DC
10
F6
F1
E7
FA
F5
EF
D7
0C
E8
DB
08
10
1D
DC
EB
F8
C8
0C
F7
10
2D
31
08
17
13
06
25
1C
1F
0A
1B
17
18
23
28
03
35
42
2B
2A
2C
E5
20
41
1E
37
2E
1F
F1
EA
28
21
24
26
0C
01
E8
02
00
00
00
01
02
00
01
E0
C0
B7
C7
DB
AC
D1
C2
EE
C1
B6
D4
D2
CE
B5
DC
09
0B
02
02
F2
00
DD
E9
EF
19
20
29
0B
24
F5
16
20
0B
01
08
0C
16
00
0B
16
06
F0
03
09
ED
CB
1C
02
FF
00
00
FF
FE
01
01
D5
09
D4
DB
F6
14
02
F0
ED
21
02
F1
D2
E4
E9
24
13
10
ED
FA
D4
DC
DF
E9
10
32
F4
F0
DC
FE
D9
FC
12
32
17
03
F3
F2
0C
13
34
2D
1C
1D
16
09
19
10
49
3E
18
1D
23
30
FE
38
27
2E
4E
47
1F
3A
1C
23
DF
0A
06
E3
0C
DE
04
38
0B
E0
FC
18
02
E7
ED
17
09
0B
09
E7
D4
E4
F3
F3
F6
FA
FB
CD
EF
E9
E3
ED
20
26
F5
F0
C3
EA
16
1B
12
FE
19
FF
F5
17
16
15
DC
23
0F
05
FC
28
F4
ED
F9
F9
1C
11
1D
23
D1
05
0F
13
D6
19
04
E4
18
F8
DE
0D
DC
DF
C9
D9
05
D7
F9
FF
03
DF
E0
DD
FA
CF
3A
FA
EC
F1
EC
F4
DA
0B
16
09
1F
FA
FA
FA
23
FF
2E
F0
2A
F5
FC
14
0B
E6
10
2C
2F
19
13
00
42
31
33
3F
06
0F
04
04
39
01
F3
E5
0A
F1
ED
F2
EF
EA
F7
09
E4
E9
D4
F0
DA
08
08
FC
16
E2
F0
EB
D8
F0
0A
2A
01
0B
E0
BF
EA
00
3F
22
04
2B
EF
E1
F8
31
00
36
06
F2
EA
FA
FF
25
29
14
22
FB
11
2C
00
E5
08
1E
3A
22
2B
40
3D
EE
D1
E3
E1
ED
D8
EB
D1
0E
2A
EB
ED
0D
E2
F0
D5
F9
07
DE
E3
F0
E2
D9
F5
ED
FC
E1
F9
E8
E6
EC
FB
2B
FE
F7
F4
FC
FA
DC
31
F9
14
2F
20
43
F6
00
FE
50
1A
11
19
2F
1A
16
EF
2D
EF
12
11
41
1B
4A
05
4D
FF
FF
01
FF
00
FF
01
FF
1E
F3
00
03
EA
C9
F5
07
0F
FC
05
07
1D
E2
11
FB
F5
00
02
05
0C
FC
E5
1D
E7
C3
09
01
19
D6
C8
F4
D0
F6
D4
C3
DD
C0
C2
D4
B2
CC
F1
E0
CE
CD
D7
E0
FE
02
FE
FF
FE
01
FF
02
20
2F
22
14
35
47
26
20
15
5C
26
2C
37
40
48
1F
3D
3C
33
22
20
29
27
37
0A
19
05
15
14
12
19
2D
0D
06
F4
E7
00
CA
F6
EF
10
FC
F7
DB
FD
D7
E2
F2
F7
14
E8
E8
CA
E9
F2
15
29
FA
06
06
F7
0E
DC
EB
23
21
1C
19
25
2D
0A
DF
16
28
D5
24
1C
0B
F5
F1
E0
EE
07
F7
07
F8
1A
27
F0
CD
02
E3
FB
EE
20
01
3B
ED
E6
E6
E6
DB
FE
E4
0E
F8
F9
E2
E5
D9
D1
EB
FB
DB
D8
FA
13
EA
DD
F2
0B
23
FF
04
C5
0B
12
E1
2C
21
25
2A
22
15
21
0B
36
18
3E
1A
22
3C
21
03
08
29
EC
FD
29
1F
FB
0B
0E
F8
F7
07
15
E9
14
1D
17
DC
EB
D9
DC
E1
D6
FA
E4
E6
C3
BF
CD
E4
E6
DA
EC
CE
F3
C6
EE
D6
C7
E5
DA
0F
DB
CA
F1
F9
F3
E2
E2
14
1A
1D
31
34
0E
13
17
1F
1D
2B
23
E0
32
09
EC
25
09
11
F3
20
0B
E7
2B
00
27
EE
E5
E4
E8
EE
3D
20
DE
E4
0C
CE
FC
FE
05
30
E3
CF
07
DB
E2
FF
E4
1D
E5
06
E7
CB
01
E8
DE
DD
13
DB
D9
C8
D0
F3
0A
C5
E5
3F
40
32
22
25
16
1F
13
16
28
48
18
31
29
0A
F8
F1
37
39
1A
53
00
0B
FE
EC
E6
04
FC
EF
03
DE
F4
F4
16
08
F9
F3
E5
E6
07
D6
D1
EF
E1
E4
1C
DA
D0
EA
E1
D3
ED
10
30
DA
E9
F0
DA
F3
02
15
00
02
01
02
FF
00
00
01
2C
53
4E
55
28
58
32
46
24
4D
5E
3F
3B
3E
63
35
0E
1B
16
12
21
1D
3C
34
27
0C
09
02
2A
FF
29
11
0E
14
19
19
23
14
2C
1F
03
17
18
0B
24
41
4F
12
FF
FE
00
00
FE
02
FE
FF
2C
F9
2E
27
12
F5
02
0D
1B
DC
15
1C
35
22
15
E6
F2
F8
1C
13
36
2B
27
19
00
DA
1E
2A
2D
0D
2C
11
F7
D7
F8
03
29
29
F7
00
D1
EB
F6
F0
FF
07
EE
F1
BB
C4
FE
FA
EB
D1
1E
CB
DC
DF
B8
BC
F7
D5
EF
E0
28
F2
04
1C
F4
24
FC
C8
FB
20
15
EB
12
21
19
F1
FE
FF
FE
25
2D
27
14
1A
0C
12
17
47
21
23
22
24
DD
E6
12
19
4A
29
F1
EB
F3
08
FC
0B
22
05
F9
F4
27
F5
FA
0B
16
DE
27
14
0B
12
01
03
F1
FB
35
F7
07
EC
30
F9
02
32
FA
0C
2C
FE
23
2D
3E
2E
09
31
13
0C
06
29
31
2E
15
35
C8
0E
18
13
29
18
34
FC
F4
FB
F4
1B
09
0F
EC
07
E2
15
E0
15
12
F9
0F
1D
06
DA
DE
08
F3
0A
D5
E3
F3
DB
08
0C
18
13
EC
21
14
2B
02
0E
18
15
0D
1A
0A
FC
29
1B
3E
1A
29
F7
02
1D
00
37
1D
20
3E
1E
F3
E5
11
01
2C
4E
25
08
CF
E1
02
DD
2A
2A
0C
D8
02
D8
05
1E
1D
19
08
E4
DC
06
01
14
FA
DA
04
1B
F9
E8
C9
F8
DC
C6
CD
11
33
27
24
12
36
1D
3E
EE
D9
1C
21
F4
24
23
39
16
F7
2F
2B
1F
25
32
15
19
0B
26
1C
28
37
30
1E
F0
0C
11
0F
09
09
40
E9
1A
F0
D9
E9
D6
15
11
10
BE
F2
FC
FC
D5
02
0A
35
F3
1B
09
F8
CC
05
DF
22
F3
00
00
FF
FF
00
01
02
FE
0A
37
2E
07
1D
4F
29
22
11
29
18
13
F4
37
1A
1D
25
23
18
14
19
20
40
05
31
4B
08
20
03
45
62
35
47
2D
46
4D
37
5B
54
4F
5A
41
1C
4A
3F
44
34
2A
FE
02
01
02
01
02
FF
00
E2
DF
E8
EE
D0
C1
E2
E1
ED
AB
EA
D8
D6
C5
BA
EC
BE
CF
05
F1
E6
EA
E5
CA
F5
F4
03
F3
00
FF
EF
D3
F6
0C
15
28
14
3D
13
1D
F1
07
16
2F
05
31
2E
13
0D
EE
1E
18
40
1C
11
ED
D5
05
FB
00
21
EF
23
14
DE
E7
F2
03
E4
E9
F8
2E
F4
EC
35
E8
F7
02
1A
1C
24
1F
05
1B
0F
18
FA
E2
1F
37
0C
2C
15
1D
EA
05
C8
22
20
29
1F
35
12
21
FD
14
19
21
26
35
42
1A
0B
48
29
09
F2
2B
24
15
F8
E5
07
F8
3E
F9
F3
1D
EE
E9
F0
EE
F4
0A
01
17
CE
EA
CC
F3
E3
D1
E7
1A
0D
E2
1D
07
E1
E7
0E
F9
FA
0F
1B
06
F0
22
F4
EC
F6
2A
1B
30
2A
23
33
0C
28
22
46
3F
3D
2B
21
2D
32
43
17
41
25
42
43
21
31
02
2F
3D
14
1D
1D
2F
20
F0
E7
F3
D2
CF
F0
01
EC
EC
F0
E5
F7
29
D1
00
18
EC
04
F7
1C
ED
FF
29
D6
00
E6
1D
20
25
1E
1B
D5
F6
34
31
09
3B
11
18
05
EA
29
40
0A
3E
2B
0A
1D
F2
1B
02
22
43
07
28
27
22
F5
32
30
3D
34
16
FB
4F
2C
CB
D9
DD
10
F7
F0
E8
F8
F6
EE
D6
0D
E7
DB
06
11
19
DC
ED
FB
CA
0C
F8
11
2C
31
09
18
12
02
29
1A
1E
0D
19
15
14
22
25
01
36
42
29
2B
2C
E3
1D
3E
21
39
30
1D
F2
EA
25
1F
25
27
0D
FE
EA
01
FF
02
FE
00
01
02
02
E1
C0
B8
C8
DB
AF
D4
C3
EE
C1
B4
D8
D3
D1
B4
DE
08
08
02
01
F2
00
DB
E9
F2
18
1E
27
08
22
F3
14
22
09
00
05
08
14
FD
0C
15
05
F2
05
09
EF
CD
17
02
FE
02
FF
00
02
00
FF
D6
08
D8
DB
F2
14
02
F0
ED
20
01
F3
D2
E1
EB
25
12
11
EC
FA
D4
DB
DD
EC
0C
35
F5
F0
DB
FE
D7
FB
10
30
15
06
F3
F0
0D
12
36
2C
19
1C
16
08
1A
13
4A
3C
18
1E
1F
2C
FE
38
27
2B
4A
47
1D
3C
1A
20
E1
0B
06
E7
0B
DD
09
35
09
E1
FB
19
02
E5
F1
17
05
0B
0A
E6
D8
E4
EE
F2
F9
F8
FB
D0
ED
E8
E3
EB
1F
22
F5
F3
C4
EB
13
1E
15
01
18
FD
F3
16
14
10
D9
20
0E
04
FB
27
F2
EE
F8
F5
1A
11
1F
1F
D1
05
0E
11
D7
19
01
E3
16
F7
E0
0D
DC
DF
CC
D8
04
D9
F9
02
04
DC
E1
DD
FA
CF
3B
FC
EE
F2
EC
F4
D8
09
12
06
1E
FA
FD
F8
22
00
2A
EF
29
F4
FE
13
0A
E8
10
2B
2C
17
14
03
40
2F
30
3F
07
10
02
07
38
00
F2
E3
09
F1
EE
F5
F1
E8
F8
08
E5
E9
D7
EE
DB
09
0B
FB
16
E3
F0
EB
D7
F1
0C
2A
FF
0C
E1
C3
EA
00
3E
21
05
28
EF
E3
F5
30
FF
34
04
F3
EF
F8
02
23
29
14
23
FA
15
2B
FE
E4
0B
1D
3C
23
2C
42
3C
F1
D5
E3
E3
F0
D6
EB
D2
11
29
EB
EE
0F
E1
F0
D6
F9
09
DE
E2
EF
E1
DB
F3
EF
FD
DF
FB
E6
E6
EE
FA
2C
FC
F8
F5
FE
FB
DB
31
F7
12
2F
20
40
F6
03
FF
4F
1A
13
1A
2D
19
1A
EF
2C
F1
12
12
43
1B
47
04
49
02
FE
02
FF
00
FF
01
01
1F
F2
FC
FF
E8
C8
F2
07
13
FB
04
07
1A
E2
12
FC
F6
01
05
06
0A
FC
E2
1F
E1
C3
09
02
19
D5
C5
F6
D1
F6
D2
C3
DA
BE
C0
D4
AC
CC
F3
DF
CC
CA
D6
E0
01
FE
02
FE
FF
FF
00
FE
23
30
24
19
33
47
27
23
18
5E
24
30
3E
40
4C
1C
3E
3F
36
21
23
2C
27
38
0A
19
06
14
13
14
1C
31
0C
06
F2
E9
00
CC
F6
F0
11
FF
F3
DB
01
D8
E4
F1
F6
14
E9
E8
C7
E8
F2
19
2B
00
06
06
F6
13
DC
EA
26
1F
1F
18
24
30
0A
DF
17
27
D3
27
18
0D
F8
F0
E2
EF
03
F6
09
FA
1B
2A
ED
CA
02
E2
FE
ED
1E
01
3B
EE
E8
E6
E8
D8
FF
E3
0C
F9
F9
E2
E3
D9
CE
EC
FD
DA
D8
FB
13
E6
DE
F2
0B
1C
FC
09
B1
0B
12
E0
2D
22
24
2A
23
15
1E
0C
3A
1C
3C
1A
25
3C
1E
04
0A
29
EC
01
2A
22
FB
0F
0E
F8
F9
07
15
E8
13
1F
19
DE
EB
D7
DC
E2
D7
FA
E4
DA
C4
BF
CA
E3
E3
DC
EB
CD
F2
C2
EF
D5
C6
E8
D8
10
D9
C5
F1
F8
F0
E2
DF
14
18
1D
30
38
13
12
19
1F
20
2A
22
DF
31
07
EB
23
08
11
F3
22
0A
E5
2C
02
25
EE
E5
E2
E6
F0
40
1F
DD
E1
0A
CC
FC
FE
07
35
DC
CF
08
DA
DF
FF
E4
1C
E7
04
E6
CA
01
E7
DE
DD
12
DA
D6
C6
D1
F3
0C
C5
E7
41
41
35
23
25
14
22
16
17
29
49
18
31
28
09
F8
EF
3B
38
19
55
FE
05
FE
EE
E7
06
F8
EC
02
DE
F6
F1
16
08
F6
F7
E1
E6
0A
D4
CF
EF
DD
E3
1E
D8
CD
EB
DF
D4
EC
10
33
D9
E7
EF
D5
F6
06
1B
00
FF
FF
FF
FF
00
FE
FF
2E
56
52
55
27
58
33
4A
23
4C
60
40
3D
43
67
33
0F
1D
16
11
1F
1E
3C
35
2A
0B
0C
03
2B
FE
28
11
0E
10
1A
17
23
12
2C
20
04
19
1C
0A
23
43
50
14
FE
01
00
01
02
01
00
FF
2F
F7
2E
28
0F
F2
FF
0D
1A
DA
14
1C
35
25
14
E5
F2
F6
1A
13
39
29
29
1C
FE
DB
22
2C
2D
0E
2E
12
F6
D6
F9
03
29
29
F6
FE
D1
EB
F4
EF
FF
08
EF
F4
B9
C5
FC
F9
EB
D3
1D
C4
DB
DD
BC
BD
F6
D5
EE
DE
2C
F2
01
1E
F5
2A
FB
C6
FC
22
13
EB
13
23
18
EF
FD
FF
01
24
2E
26
17
1D
0D
15
19
48
21
25
20
23
DE
E6
14
1B
4B
2A
F2
E8
F4
08
FA
0D
22
06
F6
F2
2B
F9
FA
0C
14
E0
27
17
0C
11
01
05
F0
FB
38
F6
0A
F4
32
FB
01
35
F9
0F
2D
FD
26
2D
3C
2C
08
30
16
0B
09
29
33
30
13
38
C7
0F
1A
14
27
18
38
FF
F2
FF
F8
1D
07
0E
ED
09
DE
17
DE
16
11
F7
10
20
09
DC
DC
06
F6
09
D3
E2
F3
DB
07
0D
18
15
EC
21
16
2B
03
11
17
11
12
1B
0A
FD
28
1C
40
19
29
F4
03
20
FB
3A
1F
1E
3D
1C
F9
E4
13
02
2F
51
27
06
D0
E0
05
DC
2A
2A
0A
D5
04
D9
05
1E
1F
19
08
E2
DD
07
03
17
FD
D7
07
1E
FA
E7
C8
FB
DB
C7
CE
12
32
23
29
11
3A
1F
41
F0
D8
1B
23
F6
27
26
3E
17
F7
31
2B
1F
27
35
16
19
09
24
19
2B
35
2F
1C
EF
0E
12
0E
0A
07
42
E8
1A
F4
D9
EB
D6
13
12
0D
BF
F4
F9
FA
D3
01
0A
35
F2
1F
06
FA
CB
00
DF
23
F2
01
FF
FF
02
00
FF
FE
01
0C
3B
34
0A
1C
4F
2A
24
12
2C
17
11
F4
3B
19
1E
26
22
18
13
18
22
3F
05
32
4F
07
1E
02
4A
64
36
4B
2A
48
4E
38
58
54
51
5A
43
1C
4A
3E
46
34
2B
00
FE
01
00
02
FE
02
00
DF
DE
E7
F0
D2
C2
E3
E0
ED
AB
E8
D9
D5
C6
BC
EB
BE
CE
05
EE
E4
E9
E1
CB
F5
F5
03
F3
FE
FF
F0
D3
F7
0E
18
29
14
40
10
1E
F0
0A
17
2E
05
32
30
13
0D
EF
1E
1C
41
1C
13
EE
D4
03
FD
01
20
F1
22
13
E1
E6
F2
00
E3
E8
F7
2F
F2
ED
36
E7
F6
00
1C
20
22
1E
07
1D
11
17
FD
E1
1F
34
0E
2A
12
1D
E7
07
CC
27
22
28
1E
33
16
23
FD
14
18
24
28
37
42
1D
0E
47
29
06
F1
2B
25
14
F9
E5
02
F7
3D
F8
F4
20
EB
E7
ED
EF
F2
0A
FF
17
CB
E9
CF
F2
E3
D2
EA
19
0D
E5
20
07
DF
E6
0D
F8
FC
0C
1A
07
EE
25
F4
EA
F4
27
19
30
2A
22
34
0C
29
21
46
42
3C
28
23
31
33
44
16
3F
23
45
44
21
30
03
34
3C
17
19
1B
30
24
EF
E7
F7
D6
CB
F0
01
EE
E9
EC
E2
F4
2A
D0
01
19
EC
07
F8
1A
ED
FD
2A
D7
03
E3
1E
22
25
20
1A
D4
F7
34
32
0A
3B
12
17
07
E8
2C
42
0B
3F
2C
0B
1E
F3
1C
01
22
46
06
2A
26
20
F5
34
33
3C
31
14
FB
52
31
CB
D9
DD
11
F5
F2
E9
F9
F5
F0
D6
0B
E8
D9
06
10
1A
DC
E9
FC
C6
0A
F6
11
2B
32
09
1A
12
04
29
1A
22
0C
19
16
15
23
27
02
37
45
2B
2C
29
E5
1E
42
1E
3A
31
20
F3
EA
25
22
22
27
0D
FE
E7
02
FE
01
01
01
01
00
01
E3
C0
B7
C7
DD
AE
D4
C3
EC
C1
B3
D5
D1
D0
B2
DC
04
09
01
00
F0
00
DC
E8
F0
1C
1C
28
09
20
F2
15
20
08
00
09
09
15
FD
0B
19
06
EF
05
0B
EB
CB
1A
00
FF
00
02
00
02
00
01
D5
08
D5
DC
F3
17
00
F1
EC
22
04
F0
D3
E0
EA
26
15
13
EE
FC
D3
DA
DF
EC
0E
33
F4
F1
DB
FE
D7
F9
15
30
17
03
F3
F2
0B
13
35
2E
1A
20
16
09
19
11
4A
3D
18
20
22
30
FC
36
24
2E
4C
48
1D
3C
1A
1F
DE
0B
08
E4
0B
DE
07
39
0B
E2
FC
1B
05
E6
ED
17
08
09
07
E7
D4
E3
F0
F1
F9
F8
FB
CE
EF
E6
E5
EA
20
25
F5
F4
C6
EC
16
1A
14
FD
18
FE
F2
18
16
12
DC
20
0D
06
F9
28
F4
ED
F6
F5
1A
12
1E
22
D1
09
0D
10
D8
1A
02
E1
19
F5
DF
0D
DD
E0
C9
D9
07
D6
F6
00
02
DE
DF
DC
F8
D1
3C
FB
ED
F1
EB
F4
D9
0C
14
07
1F
F9
FA
F7
21
00
2D
F1
29
F6
FE
13
09
E6
10
2D
30
19
14
00
43
31
33
3E
09
0D
02
07
3A
02
F0
E1
08
F2
EB
F2
EF
E7
F6
0B
E6
E8
D5
F0
DB
0A
08
FC
18
E4
F2
EB
D6
F1
0A
29
FD
0C
DD
BE
EA
FE
3D
22
07
2A
ED
E0
F7
2F
FE
35
05
F5
EE
FD
FE
24
28
13
22
FB
12
29
00
E6
0B
1E
3A
22
2C
40
3E
F0
D3
E4
E3
EE
D8
EB
D1
12
29
EB
ED
0C
E1
F0
D5
F9
0A
DD
E2
ED
E0
D8
F4
ED
FD
DF
FA
E8
E6
EC
FB
2B
FB
F8
F3
FC
FD
DC
32
FA
11
30
21
3F
F8
00
FD
52
1C
10
1A
2C
17
1A
F0
2C
EF
14
13
40
1C
49
05
49
00
01
01
01
FE
FE
01
00
0B
3C
32
0A
1C
50
2C
23
13
2C
1B
13
F0
3C
19
21
25
26
19
15
18
23
42
09
31
4E
08
1F
05
48
66
36
49
2C
4A
53
3D
5A
59
51
5E
43
1C
4F
3F
44
34
2B
02
FF
02
01
FF
02
00
01
DD
E0
EA
EE
D0
C0
E0
DD
F0
A6
E9
D6
D3
C6
B8
ED
BD
CE
05
EF
E6
EA
E4
CA
F7
F1
03
F1
00
FE
F0
D2
F6
0B
19
2C
13
41
11
20
F2
0C
16
30
04
34
30
12
0A
EF
1F
19
43
1E
13
EE
D5
04
FD
01
23
F3
22
15
E1
E4
F1
03
E2
E9
F7
31
F4
EB
38
E9
F5
02
1A
20
23
21
06
1E
12
19
FB
E2
23
39
0D
2C
13
20
E9
06
C8
26
20
28
22
37
17
21
FC
15
16
22
29
37
44
1D
0F
47
2A
06
F4
2E
27
14
F6
E3
06
FB
3F
F6
F4
20
EF
E4
EF
F1
F5
0A
00
17
CB
E9
CE
F4
E3
D1
E8
1B
0D
E2
21
0B
DE
E5
0D
F7
FB
0F
1B
06
EE
22
F4
EA
F3
29
1D
32
2C
24
33
0D
2C
1F
48
43
3B
2B
25
32
35
47
16
43
22
45
43
21
33
02
32
3F
15
1B
1E
30
21
F0
E8
F4
D5
CA
F1
02
ED
E7
EC
E4
F6
2B
CE
00
1C
EB
07
FA
1D
ED
FD
2D
D4
04
E4
1D
22
25
1F
1C
D5
F6
38
31
0C
3C
14
16
06
E8
2C
45
0B
40
2E
0D
20
F3
1A
02
23
48
0A
2B
27
21
F6
36
32
3B
33
16
FE
54
2F
CA
D6
DD
11
F7
F2
E4
F9
F5
EF
D5
0A
E8
D9
06
11
1B
DA
EB
FB
C4
0D
F5
11
2C
30
0A
19
15
03
26
1D
1F
0C
19
17
16
24
29
02
36
45
2D
2B
2C
E2
1E
42
21
38
2E
20
F4
E8
29
20
24
2A
0E
FF
E7
FF
00
FF
01
00
01
01
01
E0
BE
B5
C7
DB
A9
CF
C1
F0
BF
B1
D3
D1
D1
B4
DA
08
0B
03
01
F3
FE
DB
EA
ED
1E
1E
28
0C
23
F5
14
25
0B
FF
0B
0C
15
02
0C
17
03
F0
05
0D
EF
CA
1A
FF
FF
00
00
FE
01
FF
01
D4
0A
D5
D9
F5
17
00
F0
ED
23
04
F2
D1
E2
EB
26
15
13
EF
FB
D2
D9
DF
EB
0D
35
F7
F1
DC
FD
D7
F8
13
35
18
06
F3
F3
0D
11
38
2D
1B
21
19
06
1B
13
4B
3E
16
20
22
30
FD
37
26
2D
4F
4A
20
3C
1D
22
DE
0A
04
E5
0E
E0
07
38
0A
E2
F8
1A
03
E3
EC
18
06
0B
07
E5
D7
E4
EF
F3
FA
F9
FC
CF
ED
E4
E6
EA
25
23
F5
F2
C3
EA
17
1D
13
FF
19
FD
F2
18
13
13
DB
22
12
05
FC
29
F4
EC
F9
F5
1C
11
20
23
CE
06
10
11
D7
17
03
E3
19
F5
DE
0E
DC
DE
CA
D6
04
D8
FA
01
03
DE
DE
DC
F9
D0
3F
FD
ED
F0
EA
F5
D7
0C
16
08
21
F9
FC
F7
22
FF
2F
F0
2B
F3
FF
13
0C
E6
11
2E
2E
19
14
04
42
30
33
42
07
0D
02
05
38
04
F0
E3
06
F2
EE
F3
EE
E9
F9
08
E4
E6
D5
EC
DA
0A
09
FC
17
E4
F0
E9
D6
F3
08
27
FE
09
DD
BF
E7
00
41
25
05
28
EF
E1
F6
30
02
37
04
F4
EA
F9
00
24
29
14
24
FB
13
2E
00
E5
08
1E
3F
24
2B
41
42
EF
D3
E4
E3
ED
D5
EB
D3
10
27
EC
EE
0E
E3
EF
D3
FA
08
DF
E1
EE
E2
D9
F3
EE
F8
E1
FA
E7
E4
EC
FB
2C
FD
F9
F3
FB
FD
D9
30
F7
14
30
25
43
F5
FE
00
50
18
14
1A
2D
1B
1A
ED
2D
F0
14
10
43
20
4A
03
4E
01
01
FF
01
FF
00
00
02
20
F3
FD
FF
E8
C7
F5
06
11
FB
04
04
1F
E0
12
FA
F5
01
01
05
0B
FB
E3
1E
E3
C4
0B
02
17
D3
C8
F5
D0
F4
D3
C2
DB
C0
C3
D5
B0
CD
F3
E0
CB
CB
D8
DD
01
01
FF
00
FF
01
02
00
22
30
24
16
31
48
24
22
17
58
25
2D
38
3E
49
1E
3C
3B
33
20
21
2A
27
3B
0C
19
05
16
13
12
1C
2C
0D
04
F2
E9
FD
CC
F4
F1
0E
FC
F5
DD
FF
D7
E2
F1
F6
14
E8
E8
CA
EA
F1
18
28
FE
06
08
F8
0D
DD
EB
24
1F
1B
18
25
2D
0B
DE
19
27
D7
24
1C
0C
F8
F1
E2
EC
07
F6
08
FA
1D
25
EE
CF
03
E3
FE
F0
1E
03
3B
ED
E9
E7
E8
DB
01
E3
0B
FA
F7
E3
E6
D9
CF
EC
FD
DB
D9
FD
13
E7
DD
F0
0A
18
FF
05
B5
09
15
E3
2C
22
24
29
23
13
20
0B
35
1A
3E
1A
23
3C
1E
01
0A
2B
EC
FE
29
1E
FB
0E
10
F4
F7
06
18
E8
12
1D
17
DF
EE
D7
DE
E0
D8
F8
E5
DD
C4
C2
C8
E2
E2
DC
EA
D0
F3
C4
EE
D5
C8
E7
D8
10
DB
C7
F0
F8
F2
E1
E2
1A
1B
1E
31
37
15
13
17
1F
1C
2A
24
DE
32
09
ED
22
07
12
F3
22
0A
E6
29
04
24
F0
E6
E2
E9
F0
3B
1F
DE
E4
0C
CD
FC
FD
06
32
E3
CF
08
DC
E2
02
E4
1C
E9
03
E6
CC
03
EA
E0
DC
14
D9
D9
C6
D2
F2
09
C4
E2
40
43
31
22
24
14
21
15
16
2A
45
18
30
26
0B
F6
F2
3A
38
1B
54
FF
0C
FF
EC
E7
02
FA
EF
02
DE
F6
F1
14
09
F7
F0
E3
E6
0C
D4
C9
F2
E1
E1
20
DC
CF
EC
E1
D3
ED
12
2E
DB
EB
EF
D9
F5
04
17
FE
FF
01
01
FF
01
00
01
2E
51
4D
55
28
5A
31
48
22
4D
5F
39
3B
40
61
36
0E
1B
17
10
21
1D
39
33
29
0C
09
03
2A
FF
2B
11
0D
14
19
1A
22
11
2C
20
03
16
19
0A
25
40
52
13
00
01
FF
02
FE
FE
00
00
2A
FD
2D
28
10
F2
03
0B
1A
DD
12
18
32
23
14
E4
F1
F7
19
13
36
27
27
1C
FC
DA
1E
2A
2D
0D
2E
11
F5
D8
F8
02
27
27
F7
FD
D1
EB
F7
F3
FF
09
EE
F2
BB
C5
FE
FA
E7
D4
1F
C6
DC
E1
B9
BE
F7
D5
F0
DF
2A
F3
02
1E
F3
25
F7
C9
FA
1F
13
E9
12
21
19
EF
FF
FF
FD
24
31
26
16
1A
0D
13
17
45
22
22
1E
20
DF
E6
12
1A
4A
29
F2
EB
F4
05
FA
0B
22
05
F8
F0
29
F9
FB
0C
16
DF
28
15
0C
11
00
06
F0
FD
37
F9
0A
F4
30
FA
FE
36
F9
0E
27
FC
24
2B
3A
2B
08
2D
13
0D
05
2B
31
2F
12
36
C7
0B
16
15
28
18
33
FF
F0
FE
F8
1C
08
10
EE
0B
E1
15
E0
13
13
F9
0E
1E
08
DC
DD
06
F4
08
D5
E5
F3
DC
08
0D
17
14
EC
21
15
2C
02
11
18
11
0C
17
0B
FE
2B
1B
3C
19
2A
F8
01
1D
00
37
1E
21
3E
1B
F6
E6
11
03
2D
4C
25
09
D2
DE
06
DB
2A
2B
0E
D4
04
D9
05
1D
1F
18
0A
E3
E0
06
02
13
FC
D8
05
1D
F9
E8
C5
FB
D6
C6
CC
0F
31
26
27
15
39
1C
3C
F1
DC
1D
21
F4
25
22
3A
14
F8
30
28
1C
21
33
14
1A
07
24
19
28
34
2F
1E
EF
0E
15
0E
0A
0A
3D
E7
19
F1
DA
EC
D6
15
12
0E
C0
F1
FB
FE
D3
00
09
34
F4
1C
09
F9
CC
01
DE
20
F2
01
02
02
00
02
FF
00
FF
0B
39
30
09
1D
4F
2B
21
12
2B
1A
14
F5
38
17
1F
22
23
16
13
18
20
40
06
2F
4C
08
1F
05
48
63
35
46
2B
48
4D
39
5B
54
51
59
43
19
4D
41
43
35
29
FF
02
FF
02
FE
01
FF
01
E0
DC
EA
EF
D1
C5
E2
E0
F0
AC
EB
DB
D6
C8
BC
EF
BD
D0
02
ED
E4
EB
E4
CB
F5
F4
03
F3
FF
FD
EE
D2
F7
0B
17
29
13
41
11
1C
F1
08
17
2D
05
32
30
11
0D
F2
1C
1A
3E
20
13
ED
D7
04
FE
FE
20
EF
20
15
DE
E5
F1
02
E3
EA
F7
2E
F5
ED
35
E6
F6
01
1B
1D
21
20
08
1D
11
18
FA
E2
20
33
0C
2A
14
1E
EA
06
CB
25
1F
26
20
35
16
23
FE
14
1A
20
25
37
44
1E
0F
47
29
09
F4
2C
26
14
F8
E5
04
F8
3E
F9
F5
1D
EC
E9
ED
F0
F3
08
FF
14
CF
EA
CF
F2
E4
D3
E8
18
0C
E2
1D
09
E1
E7
0D
F9
F9
0C
18
05
F1
23
F1
ED
F5
27
1D
30
2A
1F
33
0D
28
20
47
3F
3B
29
21
30
31
41
16
40
23
46
41
20
31
03
33
3F
16
1A
1B
2F
20
ED
E9
F7
D5
CC
F2
00
EF
E8
F0
E3
F7
2C
D2
02
18
EB
06
F5
1A
EE
FD
2A
D5
03
E4
1B
22
25
1D
1B
D4
F8
36
2F
0B
3D
13
18
07
E7
2B
43
09
3F
2F
0C
1D
F1
18
FE
20
46
08
26
23
23
F8
31
2F
3D
31
17
FE
52
2D
CA
D8
DE
10
F7
F1
E5
FA
F8
F1
D4
0A
E8
D9
07
12
1A
DE
EC
FB
C8
09
F5
0F
29
30
0A
18
13
06
25
1B
1D
0B
1B
17
16
21
28
03
37
42
29
2C
2A
E4
1D
41
1D
3A
2E
21
F1
E8
24
20
24
26
0D
FD
E7
FF
00
00
01
FF
FF
00
FE
E4
C1
BA
C7
DC
AE
D4
C2
EE
C0
B4
D5
D0
D3
B5
DE
08
0B
FF
FF
F1
FD
DC
E9
EF
19
1C
27
09
21
F4
16
20
0A
02
09
09
13
FD
0A
16
04
EF
06
0C
EC
CE
1A
FE
FE
FF
FE
01
FF
FE
01
D6
07
D6
DA
F5
14
FE
F1
EC
23
03
F1
D0
E3
EC
25
11
0F
EF
FD
D6
DC
E0
EC
0E
33
F4
F3
DD
FE
DA
F8
16
32
17
04
F4
F0
0B
12
35
2B
19
1D
17
06
18
12
49
40
19
20
21
2F
00
35
24
2A
49
47
1F
39
19
20
E0
0B
07
E6
0F
DE
07
35
09
E3
F8
19
04
E7
EF
17
05
0B
07
E6
D4
E4
F0
F2
F7
FB
FA
D0
EE
E7
E5
EC
21
24
F7
F3
C7
E8
14
1D
12
FF
17
FF
F3
17
13
11
DA
21
0F
05
FA
27
F2
EF
FA
F7
1A
12
1E
1E
D2
08
10
12
D7
18
05
E4
17
F6
E1
0F
DE
DE
C9
DA
05
DA
FA
01
04
DE
DF
DF
FA
D1
3D
FD
EC
F0
EA
F3
D8
0B
13
07
22
F9
FD
F8
1F
02
2B
EF
2A
F2
FD
13
09
E6
10
2A
30
15
14
FF
41
2D
2F
3E
08
10
02
06
36
02
F4
E1
0A
F3
EE
F3
EE
EB
F8
09
E3
EA
D6
EF
DD
0B
0A
FD
15
E5
F2
EA
D8
F2
09
27
FF
0A
DF
C0
E8
00
3E
23
04
27
F0
E1
F7
30
FF
36
04
F4
EB
F8
01
25
29
13
21
FB
15
28
FF
E8
08
1C
3A
22
2A
41
3E
F1
D2
E6
E1
F0
D8
EB
D0
12
29
EB
F0
0D
E4
F0
D5
F9
06
E1
E3
EE
E0
DB
F3
EF
FB
E1
FA
E7
E4
EE
F8
2B
00
F7
F2
FC
FC
DB
2F
F7
14
2F
22
42
F6
00
00
4E
19
12
1B
2D
18
18
F1
2C
F0
16
11
3F
1A
46
05
4B
01
02
02
FE
00
01
00
02
1E
F2
FF
FE
EB
C8
F4
06
10
FB
04
02
1B
E1
11
FB
F6
00
01
04
0B
FB
E3
1B
E9
C7
08
00
17
D7
C8
F5
D3
F4
D4
C5
DB
C2
C5
D6
B3
CE
F3
DF
CF
CD
D9
E1
FF
02
FF
FE
00
02
FF
01
1F
30
20
15
33
3E
23
20
14
56
21
2E
35
3C
47
1C
39
39
30
20
20
29
28
36
0F
18
09
16
14
12
19
2E
0E
05
F3
E8
02
CD
F9
F0
0F
00
F7
E0
00
D9
E3
F1
F6
14
E9
EB
C9
EA
F2
17
2B
FE
06
09
F5
0C
E2
EE
21
1F
1C
16
26
2D
0A
E0
14
25
D6
26
1A
0A
F6
F2
E1
F0
04
F5
09
FA
1A
25
EF
D2
01
E4
FE
EE
1F
02
38
EE
EC
E8
E9
DB
00
E3
0C
FA
FA
E3
E6
DB
D1
EB
FC
DB
DB
FA
11
E9
DF
F1
09
1D
FC
09
D0
07
0F
E2
2A
21
24
29
22
13
1F
0A
38
1A
39
18
21
38
20
05
0A
27
ED
FF
2A
1E
FB
0D
0D
F7
F7
05
15
E9
11
1E
17
DF
EF
DA
DF
E3
D7
F8
E5
E3
C7
C1
CF
E5
E6
DC
ED
CF
F4
C7
EF
D6
C9
E7
D9
10
DD
C8
F2
F8
F2
E3
E2
16
1C
1C
30
34
11
10
19
1E
1C
2B
23
E1
31
07
EC
22
08
11
F2
20
0E
E7
29
03
24
EF
E7
E3
E9
F1
3A
1D
E1
E5
0D
CD
FD
00
05
31
E3
D0
07
DC
E1
FE
E7
1B
E8
03
E6
CE
02
E8
DF
E0
12
DA
DB
CA
D2
F5
0C
C8
E7
40
3F
32
22
22
12
21
14
17
26
44
19
31
27
09
FA
F1
36
36
1A
50
FD
0B
FC
ED
E8
03
FB
F1
FE
DE
F5
F2
13
07
F6
F7
E5
E6
08
D7
D0
F1
DE
E5
1F
D8
CF
EA
E1
D5
ED
10
2F
D9
EC
F0
DB
F6
06
16
FE
00
00
FE
FF
FF
FE
01
2B
53
4A
50
27
55
2C
43
23
4A
5B
3D
3A
3B
60
34
0D
1A
18
0F
21
1C
3B
31
25
0C
09
02
29
FF
2A
0F
0D
13
16
18
21
13
2B
1D
04
18
16
0C
25
40
4D
11
FF
00
FF
01
FE
FE
FF
00
2B
F9
29
27
11
F5
02
0D
17
DE
15
1A
34
21
12
E6
F2
F7
18
0F
34
29
28
1A
00
DC
1F
26
2A
0D
2A
13
F6
D9
F9
03
26
28
F7
FE
D1
EB
F7
F2
FF
06
EF
F5
BA
C7
FE
FA
EC
D7
1D
CB
DC
DF
BA
BD
F7
D8
F0
E2
26
F7
03
1E
F2
24
F8
CB
FE
1F
15
EA
12
20
17
F0
FE
FE
FE
20
2D
27
16
1A
0E
10
16
42
1E
23
1E
21
DB
E6
0F
1A
49
2A
F0
EB
F4
07
FC
0D
22
07
F8
F1
27
F8
FB
0A
15
E0
28
13
0D
10
02
03
F0
FD
35
FA
09
F6
2F
F9
00
34
F9
0E
2A
FE
26
29
39
2E
06
2D
14
0C
03
2C
2E
2C
12
33
CA
0E
17
13
26
16
33
FE
F3
FD
F6
1A
06
0E
ED
08
E0
15
E0
14
10
F8
0D
1E
07
DD
DF
06
F5
09
D5
E6
F3
DD
08
0E
15
13
ED
21
15
27
04
13
18
13
0F
17
0A
FD
25
1B
3C
17
26
F8
02
1B
FF
35
1F
20
3E
1A
F8
E5
12
03
2B
4A
21
06
D1
E0
02
DC
28
2A
0C
D5
04
DB
06
1B
1E
19
08
E3
DE
07
01
13
FB
DB
04
1B
FB
E5
CA
FA
E1
CB
CF
11
32
21
26
15
35
1F
3B
F1
D9
1A
22
F5
25
23
37
15
F8
2D
28
1C
23
33
14
19
06
23
19
27
35
2F
1E
EF
0D
13
0E
08
07
3D
E6
19
F5
DB
ED
D7
15
11
0F
C0
F2
FB
FB
DA
02
0A
32
F2
1D
09
F9
CD
02
E1
21
F3
FF
01
00
01
00
FF
FE
FE
0C
36
2E
08
1C
4C
2B
21
10
29
16
13
F2
39
19
1D
22
23
16
11
17
20
3E
07
30
49
08
1F
03
46
61
33
48
2A
45
4D
39
57
53
4E
5A
40
1A
4A
3D
43
32
2A
01
FE
02
FF
FE
FE
02
FF
DE
DA
E8
F0
D1
C4
E5
DF
F1
AC
E8
DC
D8
C6
BE
ED
C1
D1
02
EF
E5
EB
E2
CB
F6
F5
02
F4
FE
FD
EF
D6
F6
0A
14
29
14
3D
12
1A
F0
09
15
2C
08
32
2D
0F
0A
EE
1B
1A
3F
1F
10
ED
D8
06
FD
FE
1F
F1
20
13
E0
E7
F1
03
E4
ED
F6
2F
F2
EE
35
E7
F5
04
19
1E
21
1D
04
1D
0F
18
FD
E4
20
36
0A
2B
14
1F
E7
07
CC
21
1F
29
1D
35
11
21
FE
11
17
20
25
33
42
1B
0E
46
29
08
F4
2B
25
11
FA
E4
06
F9
3D
F8
F4
1D
ED
EA
EE
ED
F3
09
FF
13
CE
ED
CF
F0
E3
D1
E8
18
0E
E3
1D
09
DF
E5
0A
F9
F9
0D
19
06
EF
21
F2
EF
F3
26
1C
2F
28
20
32
0C
27
21
44
3E
3C
28
24
2C
30
40
14
3F
24
45
40
1F
32
01
32
3B
16
19
1B
2F
21
EF
EA
F7
D6
CD
EE
00
F1
E9
EF
E5
F4
27
D2
04
16
EA
06
F7
19
EE
FF
2A
D6
01
E6
19
1F
23
1E
1C
D5
F8
34
30
08
39
11
16
06
EA
2B
3F
0A
3D
2E
0D
1C
F1
1B
FE
22
45
07
27
24
22
F7
32
2F
3A
33
14
FD
4F
2B
CC
D9
DD
0E
F8
F0
E5
FB
F6
F1
D7
0A
EA
DD
08
12
18
E0
EC
FC
C8
0B
F6
0E
2B
31
0A
17
15
04
27
1C
20
0B
1A
16
17
24
29
00
33
41
28
2C
2A
E6
1E
3F
1E
39
2F
1D
F4
ED
23
1F
22
25
0B
FF
EA
FE
FE
FE
FF
FE
01
FF
00
E3
C2
BC
C9
DD
AF
D1
C4
F1
C1
B6
D7
D5
D1
B8
DE
04
08
00
FF
F3
FE
DB
EA
F1
1A
1B
27
09
21
F6
15
1F
08
00
05
08
12
FC
0B
15
05
EF
05
0B
EE
CF
19
01
00
FE
FF
FF
02
00
01
D6
09
D8
DD
F2
17
01
EF
EF
21
04
F4
D5
E3
EA
24
15
11
F0
FA
D7
DC
DD
ED
10
30
F7
F1
DF
FF
D9
F8
13
31
16
03
F5
F3
0A
10
35
2C
19
1B
14
06
1A
10
48
3E
16
1E
1F
2D
FD
35
27
2B
49
43
1D
3B
18
1F
E2
0D
08
E5
0D
E1
05
37
0A
E3
FA
17
04
E3
EF
14
08
0B
07
E7
D8
E6
F2
F1
F9
FB
FB
D1
ED
E8
E7
EB
21
24
F7
F3
C8
ED
14
1A
12
FE
16
FF
F4
17
13
12
DD
1E
10
05
FC
26
F4
EF
F9
F8
1A
11
1E
1F
D1
05
0E
13
D7
18
02
E4
17
F4
DF
0C
E0
E0
CA
DC
07
DA
F8
FF
03
E0
E1
DE
F8
D2
3A
FA
EF
F3
ED
F4
DA
08
12
09
1D
FB
FC
FA
20
02
2A
F1
27
F6
FF
11
0B
E8
0E
2B
2D
15
12
FF
41
2E
2F
3A
06
0F
01
03
36
00
F2
E4
0A
EF
ED
F2
EE
E7
F9
09
E6
E8
D6
EF
DD
08
0A
F9
13
E3
F1
E8
D8
F3
0A
26
01
0A
E0
C3
EC
FF
3C
20
06
28
F0
E2
F9
2D
01
33
02
F5
EB
F9
FF
22
25
13
23
FA
11
29
FF
E9
09
1E
3A
21
29
3F
3C
F1
D4
E7
E5
EF
D9
E9
D3
0E
27
ED
F0
0C
E1
F1
D7
F8
07
E0
E2
EE
E4
DC
F4
EE
FB
E1
FB
E8
E6
EE
FC
2A
FF
F9
F5
FD
FC
DC
31
F9
11
2D
23
3F
F7
03
00
4D
19
11
1C
2A
17
18
EF
2C
EF
13
11
40
1B
46
06
48
01
01
01
00
01
02
02
01
10
3B
35
07
20
52
2E
25
15
2B
1B
13
F3
3D
1B
22
25
25
19
14
19
20
40
07
34
4F
07
21
04
4C
69
38
4A
2B
4B
53
39
5F
59
51
5C
45
1A
4E
44
48
33
2C
01
FF
FE
02
01
01
FF
00
DE
DC
E7
F0
D1
BE
E3
DE
F1
A7
E6
D9
D2
C3
B9
EC
B9
CD
05
EE
E5
EA
E1
C8
F4
F3
04
F5
FE
FF
F1
D1
F7
0D
17
2D
16
3F
10
1F
EE
0B
14
32
05
35
33
14
0C
F1
1E
1A
42
1D
12
EE
D4
07
FA
01
24
F2
23
14
E0
E3
F4
03
E2
EA
F7
31
F5
EB
39
E8
F6
00
19
22
26
22
05
20
14
19
FD
E3
21
39
0D
2B
16
1F
E8
07
C9
25
23
27
20
36
18
24
FD
14
18
23
26
38
45
1E
0D
4A
2C
08
F0
2E
27
13
FB
E2
02
F8
42
F5
F5
1D
EF
E6
EF
F0
F5
09
01
15
CA
E8
CD
F2
E4
CF
E6
1B
0E
E2
1F
09
DF
E6
0F
F9
FA
10
1C
06
EE
24
F2
EB
F3
29
20
32
2A
23
33
0D
2D
21
49
44
3D
2A
23
30
33
46
16
44
24
45
47
22
34
04
33
40
18
1A
1D
2F
23
F0
E7
F5
D4
CD
ED
FF
EC
E9
ED
E4
F6
2C
D0
00
1A
EA
03
F9
1A
EE
01
2C
D4
03
E1
1E
21
24
21
1C
D1
F4
38
34
09
40
12
18
04
E8
2E
44
0B
42
30
0C
20
F1
19
01
20
48
0A
28
28
21
F5
33
35
3C
34
16
FB
54
32
C7
D5
DA
13
F6
F1
E5
FB
F8
EE
D3
0D
E8
D9
06
11
1C
DC
EA
FB
C3
0B
F6
0E
2B
33
0A
1D
16
05
2A
1E
22
0A
1B
18
16
27
2B
00
38
48
2D
2E
2B
E3
1F
40
21
3B
33
21
F4
E9
27
24
25
29
0E
FC
E9
00
FF
FF
01
01
FF
FE
01
DF
BD
B7
C5
D8
AB
CF
BF
EE
BF
B0
D4
D0
CE
B0
DC
06
08
00
01
F2
FF
D9
E9
ED
1F
1F
2A
0C
25
F2
17
24
0A
03
0B
0B
16
FF
0C
19
06
F2
03
0A
EC
CD
1C
FE
FF
01
FE
FE
00
FE
FF
D3
0A
D4
DA
F4
17
FF
F1
EC
22
02
F1
D2
E0
E9
24
15
11
EF
F9
D2
DB
DE
EB
10
37
F5
F2
DC
00
D7
F6
14
33
18
07
F4
F2
0E
11
39
31
1E
22
19
07
1D
14
4F
40
18
23
24
32
FD
3B
27
2F
4D
47
1E
3C
1E
22
DF
0D
09
E4
0E
DD
07
39
09
E3
FA
1A
06
E5
EF
19
07
0A
07
E3
D5
E3
EF
F3
F9
FB
F9
CE
ED
E5
E5
E8
22
24
F9
F0
C3
EB
16
1D
14
FD
19
FD
F1
1B
15
11
D8
23
0F
04
FC
29
F2
EC
F9
F5
1F
15
1E
23
CE
09
11
11
D7
19
03
E2
17
F6
DD
0C
DD
DE
C7
D8
06
D5
F6
00
05
DB
DF
DA
FA
CE
3E
FD
ED
F4
EB
F2
D5
0A
15
06
24
F8
FE
F9
24
02
2F
EE
2C
F6
FE
13
0C
E5
0F
30
30
16
17
04
47
30
33
40
0B
0E
04
06
39
03
F0
E3
08
F0
ED
F4
F2
EA
F7
08
E4
E7
D3
ED
DB
0B
08
F9
16
E2
EF
E8
D7
EF
09
28
FF
0A
DE
BF
E9
FE
42
24
06
2C
F0
E0
FA
34
00
3A
06
F5
ED
F9
FE
23
27
12
26
FB
15
2B
00
E7
0B
1D
3F
24
2E
43
40
F0
D1
E3
E1
EB
D5
EA
D0
0F
28
EC
EE
0F
DF
EE
D5
F8
0A
DC
E1
F0
E0
D7
F5
EF
F9
DF
FA
E6
E4
EB
F8
2D
FE
F8
F4
FB
FB
D9
32
F8
15
32
26
43
F8
FF
01
55
1B
10
1C
30
1C
1A
F0
2A
EF
15
14
43
21
4D
05
4E
02
00
02
00
FF
00
FF
02
1F
F3
FD
01
EC
C8
F5
06
11
FD
05
06
1B
E1
0F
FC
F5
01
03
06
0D
FB
E6
1C
E7
C8
0A
02
16
D6
C9
F7
D3
F7
D4
C2
DD
BF
C2
D5
B2
CC
F5
E0
CE
CB
D9
E1
FF
FF
FE
02
02
FF
00
FE
23
2D
1F
15
32
44
25
20
18
5A
23
2C
35
3B
46
1C
3A
3A
32
1F
21
29
25
37
0C
17
06
15
15
12
17
2F
0D
06
F3
E9
FF
CE
F6
F0
12
00
F6
DE
01
D8
E3
F1
F7
12
EB
E8
C9
E9
F3
17
2C
00
05
06
F7
0E
E1
EE
22
1F
1E
18
22
2E
09
E0
16
27
D6
27
19
0D
F7
F1
E2
EF
05
F6
09
FB
1B
26
EF
CF
03
E1
00
EF
1E
02
3A
ED
E9
E8
E9
DC
FF
E5
0C
F9
F8
E4
E6
DA
CF
EC
FC
DA
DB
FB
12
EA
DD
F0
0E
22
FA
05
B6
0B
11
E4
2C
22
24
2B
24
15
1D
0B
38
19
3D
19
22
3A
20
04
08
2A
ED
FE
27
1F
FC
0E
0C
F8
F9
08
18
EA
15
1C
18
DF
EE
D7
DD
E6
DA
F8
E5
E6
C4
C4
CD
E3
E4
DC
EB
D0
F3
C6
F1
D5
C9
E6
DA
10
DB
C6
F1
FA
F3
E3
E3
18
19
1C
31
37
13
0F
19
1E
1D
29
22
DF
2E
0B
EE
23
07
0F
F3
20
0B
E5
2D
04
23
F0
E4
E2
E7
EE
3E
20
DE
E4
0B
CE
FD
FD
04
34
E1
D0
08
DB
DF
00
E5
1D
E9
05
E7
CC
04
E9
E0
DE
13
DB
D8
C9
D2
F3
0C
C6
E5
3F
3F
31
22
24
13
20
15
16
2A
44
1A
30
28
0A
FA
F2
37
37
18
50
FF
06
FB
F0
E9
06
F9
ED
00
DF
F5
F3
17
07
F7
F4
E4
E8
09
D5
CA
F0
E3
E2
20
D8
D0
EA
E0
D5
ED
0E
2D
D9
EA
F2
D6
F6
03
1A
FE
02
02
01
00
FF
FE
01
2F
52
4C
52
28
58
2D
44
23
4B
5F
3B
3B
41
63
32
0D
1C
18
10
1F
1D
3D
32
28
0C
0A
02
2A
FE
28
0F
0E
12
17
15
21
14
2C
1F
04
16
1A
09
23
42
4E
12
00
FE
FE
FF
00
00
00
02
2C
FB
28
23
11
F3
02
07
15
DD
13
1B
33
22
15
E5
F1
F6
19
13
35
29
27
1A
FE
DA
1E
28
2B
0C
29
10
F7
D8
F9
03
29
29
F6
FE
D2
EB
F9
F1
00
07
EF
F6
B7
C3
FD
FA
E9
D6
1C
CD
DD
DF
BE
BE
F7
D5
EF
E2
2A
F5
01
1B
F2
27
FC
C8
FA
20
13
EB
13
1F
18
EE
FD
00
FF
23
2F
24
15
1D
0D
10
18
44
22
22
20
22
DB
E7
10
1A
4A
2B
F1
E9
F3
08
FC
0C
25
06
F7
F2
27
F8
FA
0C
13
E1
27
12
0D
10
02
05
F0
FC
34
FB
09
F7
2F
FB
04
34
FA
0E
2A
FE
25
2A
3D
28
09
2C
16
0B
08
2B
2F
2D
13
34
C8
0C
18
14
28
14
33
FB
F2
FF
F5
1B
08
10
EC
07
E1
15
DD
15
12
F8
0E
1B
06
DC
DE
05
F6
08
D6
E3
F1
DA
05
0C
18
14
EA
21
16
29
04
10
17
14
0F
17
09
FC
29
1D
3D
1A
27
F7
05
1E
FE
39
20
1D
3C
1C
F6
E5
11
04
2C
4D
22
07
D2
E2
05
DC
2B
2A
0B
D8
03
DB
05
1D
1C
17
0A
E4
E0
07
03
14
FC
DA
05
1E
FC
E8
C9
FA
D6
C9
CC
11
2F
21
26
14
36
1D
3D
F1
DB
1B
1F
F6
24
22
3C
18
F8
2D
28
1C
20
33
15
19
09
23
19
26
35
2C
20
F0
0C
13
0E
08
0B
3F
E8
1A
F6
DC
EC
D6
14
12
0E
BF
F3
F8
FD
D7
00
0B
34
F2
1D
06
F9
CF
03
DF
20
F3
01
01
02
02
00
FE
01
01
0B
35
2F
07
1B
48
28
21
11
27
15
13
F2
38
19
1F
24
20
14
13
15
20
3B
05
2C
4A
08
1C
03
46
61
34
47
2A
45
4E
39
59
4F
4B
56
3E
18
49
3F
44
2F
29
02
00
FE
FE
FE
FF
FF
FE
DE
E0
E9
F0
D3
C6
E3
E0
EE
AC
E8
DB
D6
C6
BF
EE
C1
D1
04
F1
E8
E9
E5
CB
F7
F4
03
F4
00
00
F0
D5
F5
0B
17
28
12
3C
0E
1A
F0
06
15
2B
08
32
31
11
0B
F2
19
19
3E
1D
0F
EE
D8
02
FC
FD
1E
F0
23
13
E1
E6
F5
04
E4
EB
F7
2F
F2
EC
33
EA
F6
00
1B
1C
22
1F
07
1B
0D
14
FC
E3
1D
33
0D
28
13
1B
E8
05
CA
22
21
28
1F
34
10
22
FE
11
19
1F
23
33
41
1C
0E
44
27
06
F2
29
23
15
F7
E3
06
F9
39
F7
F4
1C
EB
EA
EF
EE
F4
0B
FF
12
CE
EB
CF
F4
E6
D3
E9
1A
0F
E3
1B
07
E1
E6
0C
FB
FB
0E
19
03
F1
21
F5
EC
F6
27
18
2C
28
1D
2F
0C
28
20
44
3C
39
27
24
2F
30
43
16
3C
20
42
3E
1C
31
04
2F
3E
16
1A
1E
2F
21
EF
EA
F6
D4
D0
F2
FF
EC
E9
EF
E3
F3
26
D3
03
16
EE
04
F5
19
F0
FC
2B
D7
02
E6
1A
22
23
1F
18
D7
F5
34
2F
0A
3A
11
18
04
EA
29
3F
0A
3D
2B
0C
1C
F1
19
00
20
43
07
25
22
21
F7
33
32
38
33
15
FC
4C
2F
CB
D9
E0
0F
F8
F0
E7
F9
F6
F0
D7
0C
E9
DB
07
0F
16
DD
EC
FA
C9
0C
F5
11
2A
2E
09
1A
11
05
24
19
1D
0C
1A
16
13
22
28
02
35
41
29
29
2B
E6
1E
3B
1D
35
2E
1F
F1
EA
26
1E
23
28
0B
00
E9
FE
FF
00
FF
00
FE
00
00
E3
C3
BC
C9
DC
AE
D3
C4
EF
C5
B6
D8
D3
D1
B9
DC
07
08
00
01
F2
FF
DC
EA
EE
19
1E
24
0A
20
F6
14
20
09
FF
06
0A
11
FE
0A
17
04
F2
06
09
EF
CF
16
FE
FF
02
FF
FF
FF
02
01
D5
06
D7
DA
F5
14
00
F0
ED
1F
04
F3
D3
E2
EA
25
14
11
ED
F9
D5
DE
E0
EA
0C
2F
F5
F0
DE
FE
DA
FB
13
30
14
06
F4
F1
08
0E
32
2A
1A
1D
14
08
17
11
47
3B
14
1E
1E
2E
FC
36
23
2C
47
43
1E
38
18
1F
DE
0A
07
E7
0E
E2
06
34
07
E3
F9
17
05
E6
F0
17
05
0A
0A
E8
D6
E6
F2
F2
F9
F9
FC
D2
EE
EA
E8
ED
1F
21
F5
F4
C6
EC
16
1B
14
FF
18
FF
F6
14
11
11
DB
1F
0E
06
FC
26
F3
F0
F6
F7
17
0E
1D
1C
D3
07
0E
0F
D6
16
02
E3
18
F8
E2
0D
DE
E3
CD
DA
07
DB
F7
00
03
E1
E2
DF
FB
D0
39
FD
F0
EF
EB
F7
DB
0B
13
06
1F
FD
FC
FB
1E
00
2A
EE
26
F5
00
14
0B
E8
0F
2C
2C
14
12
01
3F
2C
2F
3C
0A
0B
01
04
37
02
F3
E2
08
F1
EC
F3
F1
EA
F8
0A
E4
EA
D9
ED
DC
09
08
FC
13
E6
F2
EB
D9
F2
0A
27
FF
0C
E0
C4
EB
01
3D
20
05
29
EE
E4
F7
2E
FE
34
06
F6
EB
F8
FF
25
28
12
20
FB
14
2A
FD
E8
0B
1C
3A
20
29
3F
3B
F1
D4
E7
E4
ED
D9
EC
D3
11
29
EE
EE
0A
E4
F1
D8
F9
08
DF
E4
EF
E2
DA
F2
EF
F9
DF
FB
E9
E6
EE
F9
2B
FF
F8
F5
FB
FB
DB
2E
F9
13
2D
22
3C
F7
FF
FF
4C
1A
0F
1B
2A
19
18
F1
29
F1
13
0F
3E
18
44
03
48
00
FF
01
01
02
FE
00
01
0C
3D
36
0A
1B
51
2E
25
15
2C
1A
14
F1
39
1C
21
27
23
17
14
1B
21
41
05
30
4E
08
1F
03
4B
68
37
4B
2B
49
53
3B
5E
55
51
5E
43
1B
4C
40
44
32
2A
02
FE
02
FF
00
FE
02
FF
E0
D8
E8
EC
D0
BE
E2
E1
F0
A7
E9
D7
D3
C3
BA
EE
B9
CF
05
F2
E5
EB
E4
C9
F5
F1
00
F4
FF
01
F0
D0
F9
0C
18
2B
17
42
13
1D
F3
0A
17
2F
07
34
30
11
0B
EF
20
1B
41
20
12
F0
D6
03
FB
FE
23
EF
23
13
DC
E3
F2
03
E3
EA
F9
32
F4
EC
37
E7
F5
01
18
20
22
20
07
20
14
17
FD
E0
20
39
0E
2B
13
1E
E8
07
C5
26
21
2B
20
38
15
24
FD
14
1A
22
26
38
44
1F
0F
49
2C
0A
F0
2B
26
12
F6
E6
04
FC
3E
F6
F6
1C
ED
E7
EE
F1
F4
09
FF
16
CC
E8
CB
F3
E5
CF
E8
19
0D
E2
20
0A
E0
E6
0B
F8
FD
0D
1A
06
EE
23
F2
EA
F3
2B
1E
30
29
24
35
0D
2A
20
47
44
3E
2B
25
32
35
44
19
41
23
45
45
1F
34
03
31
3D
18
1B
1C
31
25
F0
E7
F8
D4
CB
ED
FF
EC
E7
EC
E5
F5
2D
CE
00
19
E9
07
F9
1B
EE
00
2C
D5
03
E0
1D
23
26
22
1B
D2
F4
39
31
09
3D
13
19
05
E7
2D
44
0B
41
30
0C
21
F1
1D
01
22
45
07
2A
26
21
F7
35
34
3E
32
16
FD
53
31
C9
D5
DD
14
F7
F0
E7
F9
F7
F0
D3
0A
E7
DC
09
13
19
DD
EA
FB
C4
0B
F5
12
2B
32
09
1A
15
06
25
1D
22
0B
1A
19
18
27
27
00
38
46
2C
2B
2D
E2
1D
42
1E
39
2E
22
F3
EA
25
21
25
27
0C
FC
EA
00
00
00
FE
FF
FF
00
01
E0
C1
B4
C7
D8
AD
D0
BF
EC
BF
B3
D4
D1
CE
B3
DB
08
09
01
01
F2
FE
DC
E9
F1
1D
20
27
09
22
F6
15
26
0A
01
0A
0B
14
02
0E
18
04
F0
05
0A
EC
CD
1C
00
02
FF
02
FE
02
02
00
D4
07
D3
D6
F5
15
FF
F1
EB
25
02
F1
D0
E0
EC
26
16
14
ED
FC
D3
D9
DE
E9
0E
36
F4
F1
DB
FD
D9
F8
14
35
15
07
F5
F2
0E
14
35
2F
1D
1D
18
06
1B
15
4F
41
18
1F
24
34
FD
39
28
2E
4F
49
20
3E
1C
22
DD
0E
08
E6
0E
DF
05
3A
0A
E4
FB
1A
02
E3
EC
18
09
0B
07
E6
D7
E3
F1
F3
F9
F8
FA
CC
ED
E8
E3
EA
24
23
F7
F1
C4
EB
15
1F
13
FE
1C
FD
F2
1B
12
10
DB
22
11
06
F9
2B
F6
F0
FA
F6
1C
15
20
23
D1
07
11
11
D4
18
03
E4
19
F7
DE
0D
DD
DF
C9
D8
07
D8
F5
02
04
DE
DF
DA
F9
CD
3E
FC
EC
EF
EC
F3
D6
0B
14
08
21
FA
FC
FA
23
00
2C
F0
2C
F3
FE
14
0C
E5
0F
2B
31
19
18
04
45
32
35
42
0A
0D
02
05
3B
02
F3
E0
0B
EF
ED
F1
EE
E9
FA
09
E3
E8
D4
ED
DA
0B
0C
FD
15
E1
EF
EA
D5
EF
09
2C
FD
0C
DD
BE
E6
FF
41
21
05
28
ED
DF
FA
33
FF
36
07
F5
EB
F8
FE
25
29
14
24
FD
16
2D
00
E5
0A
20
3C
24
2E
42
3F
EF
D3
E4
E1
EC
D7
EA
D2
0E
28
ED
ED
0C
E3
F1
D5
F9
07
E0
E0
EE
E1
D8
F4
ED
FA
E0
FB
E7
E5
ED
F8
2D
FF
F5
F3
FD
FC
DC
30
F9
11
31
23
41
F6
00
FE
51
1D
10
1C
2D
1A
18
EE
2A
F2
13
12
44
1F
4C
07
4C
01
00
02
02
00
01
FE
01
20
F1
FC
01
E9
CA
F5
07
12
F9
05
06
1D
E1
0F
FA
F7
01
04
07
0C
FD
E6
1B
E0
C9
0A
04
17
D6
CA
F5
D5
F7
D5
C4
DC
C0
C4
D6
B3
CB
F4
E2
CD
CB
D8
E3
FE
02
FF
01
02
00
FE
00
22
30
22
13
30
3F
22
20
16
57
22
2B
36
3D
44
1C
3D
3B
31
21
20
29
27
3A
0B
19
06
12
13
11
1B
2E
0D
06
F3
EA
FE
CD
F5
F1
11
FE
F5
DE
02
D8
E4
F0
F4
14
EA
EA
CD
EC
F2
19
2E
FE
05
06
F8
10
E0
ED
1F
20
1C
17
23
2D
0C
E0
16
25
D7
24
1A
0D
F9
F3
E2
F0
06
F6
0A
F8
1B
26
EE
D1
03
E5
FE
EF
1D
02
36
EF
EC
E8
E9
DC
01
E4
10
F9
F9
E6
E7
DC
CD
ED
FD
DD
DC
FC
14
E6
DF
F1
0E
18
FE
00
C7
0A
10
E4
29
22
23
2B
23
15
21
0A
35
19
3A
19
22
3A
20
05
0A
2A
EE
FF
28
21
FB
0D
0D
F7
F8
0A
17
EB
14
1D
18
DE
ED
D9
DE
E2
DA
F8
E3
DD
C5
C3
C9
E2
E4
DC
EB
D0
F4
C4
EE
D6
C8
EA
DB
0E
DA
C8
F2
FA
F1
E0
E1
18
1C
1B
31
37
13
0E
18
1D
1E
2A
21
E0
30
0C
ED
25
09
11
F3
1F
0C
E7
2B
04
20
EF
E4
E3
EB
EE
3B
1B
DE
DE
0D
CE
FD
FC
04
30
DE
D0
08
DB
E1
00
E4
18
E8
04
E5
CB
02
E8
E1
DE
14
D9
D9
C9
D4
F2
0A
C8
E4
3F
3E
34
22
23
12
22
16
18
28
46
18
30
27
0B
F8
EF
37
35
19
50
00
FF
FC
EE
EA
03
F9
F0
00
DE
F8
F0
16
08
F7
F2
E4
E8
0A
D7
CC
F1
E1
E2
1F
DC
D1
EC
E1
D6
EE
10
2F
DD
EB
F0
D8
F7
05
17
01
FE
00
FE
02
00
00
00
2C
50
4C
50
2A
58
2C
45
23
4B
5C
3D
39
3F
63
2E
10
1C
17
13
1F
1D
3A
31
27
0B
0A
03
2B
FE
25
11
0C
10
18
15
21
12
2B
1F
02
17
18
08
23
40
4E
13
01
01
00
01
01
01
FE
FE
2C
F9
2C
28
11
F7
03
0A
19
DB
14
1C
35
22
16
E5
F0
F4
1A
14
34
2A
26
18
FB
DC
1F
28
2A
0E
2A
12
F7
D8
F9
04
28
25
F9
FE
D3
EC
F6
F1
00
08
F0
F3
B9
C5
FF
FB
E9
D3
1B
C8
D9
E1
BD
C1
FA
D6
F0
E1
2A
F4
02
1F
F3
23
FB
CA
FD
1F
14
E9
12
21
19
F0
FE
FF
FE
24
30
27
16
1D
0F
0E
17
45
1E
22
1F
22
E1
E8
12
1B
4A
29
F1
EC
F5
09
FB
0C
24
06
F9
F3
29
F8
FB
0C
10
DF
26
15
0E
12
01
05
F1
FE
34
F8
06
F2
2F
FA
02
34
F8
0E
2B
FF
25
2A
3A
24
0B
30
1A
0B
07
2B
2D
2E
13
33
CB
10
17
14
2A
17
32
FD
F1
00
F9
1B
06
0F
EE
0A
E3
17
DD
16
11
FA
0E
1E
07
DD
DE
05
F4
0A
D8
E4
F3
DC
05
0C
17
15
ED
21
14
27
03
12
17
11
0E
19
0A
FE
28
1B
3D
17
26
F6
03
1D
00
37
1D
21
3B
1E
F7
E6
12
03
2E
4B
27
06
D2
DF
05
DC
2B
2A
0B
D9
02
DC
07
1C
1B
17
07
E5
DE
04
02
13
FD
DC
06
1B
F9
E9
C8
F9
D6
C9
CE
11
31
25
24
11
34
1E
3E
F2
DA
1D
22
F7
28
23
3B
18
F8
2C
26
1B
1F
34
16
19
07
22
1A
27
34
2D
1F
F0
0C
13
0E
0B
0B
3A
E9
1A
EF
DB
EE
D8
13
11
11
C0
F4
F5
FD
D5
00
0B
35
F3
1E
04
F9
CD
02
E1
21
F4
FE
02
FF
02
02
00
01
02
1F
F3
FF
FF
EB
C6
F4
05
11
FD
04
06
1B
E1
11
FA
F5
01
03
04
0D
FD
E4
1D
E7
C5
08
01
18
D4
C8
F5
CF
F3
D3
C2
DB
BF
C1
D2
B0
CA
F0
DF
CB
CD
D7
E0
FE
02
FE
FF
01
01
01
02
24
31
26
19
34
4A
25
24
13
5A
22
2B
36
40
47
1B
3A
3C
33
21
21
2A
28
38
0E
1B
06
16
15
11
17
30
0F
06
F2
E7
FE
CC
F8
EF
0F
FC
F6
DD
01
D8
E4
EF
F6
12
EA
E6
C6
E8
F5
19
2C
FB
05
04
F9
0D
DE
EA
24
1F
1D
17
23
2F
0C
DF
16
26
D4
28
1C
0B
F6
F1
E0
EE
05
F5
07
FB
1B
2A
F0
CD
04
E0
FD
EF
20
04
38
EE
E6
E5
E8
D9
00
E3
0E
F7
F7
E4
E3
D9
CF
EC
FD
D9
D9
FD
10
E8
DB
F0
0D
22
FD
07
B6
06
11
E1
2C
23
26
2A
25
14
1F
0B
39
1B
3F
18
22
3D
21
02
09
2A
EA
FD
29
21
F9
0C
0E
F8
F8
05
17
E7
12
1F
19
DD
EE
D8
DE
E1
D8
F7
E5
E5
C6
C1
C8
E1
E3
DB
EB
CC
F4
C4
EF
D6
C7
E6
DA
0E
DA
C8
F0
F8
F2
E1
DF
16
1C
1E
35
38
13
10
16
1C
1F
2D
22
DF
32
0B
EC
26
05
13
F2
20
0A
E5
2D
03
27
EF
E4
E1
E8
EF
3E
1C
DF
E2
0A
CB
FB
FC
06
36
E2
CE
08
DA
E2
00
E4
1E
E9
04
E4
CC
04
EA
E0
DE
15
D9
D7
C8
CE
F3
0B
C2
E3
40
40
33
24
25
16
22
15
17
28
47
18
33
2B
0A
F8
F0
38
38
19
55
FE
0B
FA
EC
E7
05
F9
EF
00
DD
F5
F0
14
0A
F6
F4
E6
E2
09
D4
D0
F1
E0
E1
23
DB
CE
EA
E0
D2
ED
09
2E
D8
E6
F2
D6
F2
04
18
01
02
00
FF
01
FF
01
FE
31
55
51
56
27
59
2E
46
22
4B
61
3D
3A
40
64
37
0E
1A
17
0D
1F
1E
3F
36
26
0B
0A
04
2A
00
2C
11
0E
14
18
19
22
14
2E
1F
03
17
19
0B
26
41
50
13
02
01
02
FE
01
02
02
FE
2E
F9
2D
25
11
F4
FF
09
19
DE
12
1D
36
25
16
E2
F1
F8
1D
11
38
29
27
1A
FD
DA
1D
26
2E
0C
2E
14
F7
D8
F8
03
29
29
F5
FC
CF
E7
F7
F2
FE
09
ED
F4
B9
C4
FE
F8
EC
D2
1E
CA
DC
DF
BB
BA
F6
D3
EE
E0
2A
F2
03
20
F2
27
FE
C7
FC
1E
14
E9
0F
22
16
F0
FD
FE
FF
25
2E
26
17
1E
0D
15
18
47
21
25
20
24
DD
E4
15
1A
48
2A
EF
EB
F1
08
FD
0D
22
04
F6
F4
2C
F8
FC
0D
17
DD
28
16
0F
10
01
01
EF
FD
38
F8
0A
F4
2E
FA
01
33
F7
0C
2A
00
26
2D
3D
2C
06
2F
15
0C
06
2B
31
30
14
38
C8
0E
18
15
2A
17
34
FC
F3
FD
F6
1D
0A
0E
ED
0B
E2
16
E0
17
14
F8
0D
1D
05
D6
DD
07
F7
09
D2
E2
F2
DB
06
0C
16
14
EB
22
12
2C
03
12
17
12
0C
16
0A
FE
28
1E
3E
1A
29
F7
05
1E
00
3A
21
20
40
1B
F5
E5
11
04
2E
4C
24
06
D1
DE
04
DB
28
2B
0E
D6
FF
DA
06
1D
1B
1B
0C
E0
DF
07
01
13
FC
D9
05
1B
F7
E8
C5
F9
DE
C5
CD
12
33
24
29
13
36
20
42
EF
D9
1D
21
F2
26
24
39
18
FA
2D
2B
1E
25
32
17
18
0A
27
1B
29
35
30
1E
EC
0D
14
0C
0A
09
42
E6
1A
F6
D9
EA
D5
14
14
0F
BE
F1
FB
FB
D3
01
09
34
F1
1E
09
FA
CC
03
DD
20
F2
FE
02
FF
00
02
FF
FF
00
0B
3A
31
06
1E
52
2B
24
13
2B
18
14
F1
3A
19
23
24
26
19
14
18
23
3F
08
2F
4F
08
1E
01
47
64
36
4B
2D
4A
51
39
5A
57
52
59
41
1A
4D
40
44
32
2B
00
00
01
01
FE
01
FF
02
E0
DC
E8
F0
D1
C2
E2
DD
F0
AA
E8
D6
D2
C4
BA
EC
B9
CE
05
EE
E5
E8
E0
C9
F8
F1
02
F4
FE
00
F0
D1
F5
0D
18
2A
12
40
12
1E
F2
07
14
2D
05
34
33
11
0D
F0
1F
1B
3F
1F
12
EF
D6
06
FC
01
21
F2
22
14
E0
E6
F2
04
E1
EC
F5
31
F4
EB
38
E6
F9
03
1C
1F
26
20
04
20
12
1A
FB
E1
1F
35
0E
2A
16
1E
EA
05
CB
25
22
26
21
34
17
22
FE
14
16
25
26
36
41
1E
0E
46
2C
07
F2
2A
29
15
F7
E4
06
FA
3F
F6
F7
1E
EF
E6
EE
F1
F4
0B
FF
15
CD
EB
CA
F3
E4
D1
E7
1B
0D
E4
1F
08
E0
E7
0D
F8
FC
0D
1A
05
EF
21
F1
EC
F4
2B
1F
30
2C
20
32
0C
2A
20
48
44
3C
2D
23
2E
34
45
15
41
24
48
44
1D
33
04
32
3D
18
1B
1D
2E
23
EF
E6
F7
D1
CE
F1
FE
EB
EB
ED
E1
F5
2C
CE
01
1C
EA
05
F7
1D
EE
FE
2D
D5
02
E3
1C
21
23
1D
1A
D4
F8
35
30
08
3F
13
18
06
E7
2C
45
0B
3F
2E
0B
1F
F0
1C
00
22
46
06
29
24
22
F7
35
31
3D
33
15
FB
53
31
C9
D8
DE
11
F4
F1
E5
F9
F7
F0
D4
0D
E8
DC
06
12
1C
DE
EC
FC
C5
0B
F6
0E
2C
31
09
1B
14
05
28
1E
20
0C
1A
18
18
25
27
01
37
45
2A
2E
2D
E2
21
40
1D
38
31
1E
F0
E9
29
21
26
26
09
FE
E8
02
FE
02
02
00
FF
FE
FE
E3
BE
B8
C6
DC
AD
D0
C3
F0
BF
B3
D3
D0
CE
B3
DB
06
0C
01
03
F1
FF
DB
E9
EE
1D
20
27
09
24
F6
16
23
0A
01
09
0B
17
FE
0E
18
04
EF
05
0C
EC
CA
1A
FF
FF
FE
00
01
01
02
FE
D3
08
D4
DA
F3
17
FE
F0
EC
21
03
F1
D0
E3
E9
24
17
13
EC
F9
D3
DB
DF
EA
12
34
F4
F0
DE
00
D9
FB
14
34
15
02
F2
F1
0D
14
33
2C
1D
21
16
06
1B
12
4B
41
19
1E
22
31
FF
38
26
2C
4E
49
20
3B
1B
20
DF
0E
06
E5
0B
DE
04
36
09
E1
F7
1A
04
E3
EE
17
06
07
07
E4
D7
E3
EF
F2
F9
FB
FC
CE
EE
E8
E5
EB
21
23
F8
F1
C4
EB
16
1C
12
FF
19
FD
F1
16
14
11
D9
21
0F
04
F8
28
F3
EF
F9
F6
1B
11
21
22
D0
05
0D
11
D7
1A
04
E5
17
F5
DC
0C
DD
DE
CB
D7
07
D6
F5
00
00
DE
DD
DC
FA
CF
3C
FD
EE
F0
E9
F7
D7
0A
14
07
23
FC
FB
F7
1F
01
2E
EE
28
F5
FD
14
0C
E7
0F
2D
31
16
17
00
41
2F
31
3F
09
0E
03
04
38
05
F2
E1
0B
F2
EB
F3
EE
EA
FA
09
E3
E8
D4
EC
DC
09
0B
FA
14
E3
EF
E7
D8
EF
0A
2B
00
0A
DD
BF
EA
00
3E
24
07
2B
EE
DF
F7
2F
FE
36
06
F3
EC
FA
01
26
28
12
23
FD
12
29
02
E6
0A
20
3E
23
2C
41
40
F0
D3
E4
E1
EF
D6
EC
D3
13
2A
EA
EC
0F
E2
F0
D4
FB
08
DF
E1
EC
E0
D9
F3
EE
FA
DF
F8
E7
E5
EB
FB
2B
FD
F8
F3
FB
FD
DB
33
F7
13
32
25
3F
F7
02
FF
51
1A
11
1A
2E
1A
18
EE
2E
F2
13
11
43
20
47
06
4C
01
FE
01
01
01
01
00
01
20
F4
FD
02
E7
C6
F4
07
13
FB
03
05
1D
E0
11
FB
F5
FF
01
06
0B
FC
E3
1F
E5
C4
0A
01
19
D5
C5
F5
CF
F6
D3
C0
DC
BD
C0
D5
AD
CC
F2
DF
CC
CA
D6
DF
01
01
FF
FF
02
01
FE
00
24
33
25
18
33
46
24
23
16
5B
25
31
39
3F
4A
1E
3D
3C
35
21
23
2B
2A
3A
0F
1B
04
16
14
12
1B
32
11
04
F2
E6
FE
CB
F6
EE
10
FE
F7
DE
FE
D7
E3
F1
F5
13
E6
E8
C7
E9
EF
1A
2F
FC
07
08
F6
10
DC
EC
25
1D
20
18
26
31
08
DF
19
28
D4
25
1C
0B
F9
F0
E1
EF
05
F5
08
F9
1C
2A
ED
CC
02
E0
FD
ED
20
03
39
EC
E6
E4
E8
D9
00
E4
0D
F8
F7
E2
E3
D7
CD
EB
FE
D9
D9
F8
14
E7
DC
F2
0A
19
FC
06
B3
0A
12
E1
2E
24
25
2A
23
15
1E
0C
39
1C
3F
19
22
3C
20
01
0A
29
EC
FF
2B
21
FA
0D
0F
F6
F8
04
13
E8
0F
1D
19
DD
EE
D6
DB
E1
D8
FB
E2
D9
C3
C0
CC
E1
E4
DA
E9
CC
F4
C4
ED
D4
C6
E7
D6
10
D9
C6
F0
F8
F1
DF
E1
17
1C
1D
31
3A
12
13
1B
1E
1E
2D
22
DE
33
0C
EC
24
09
10
F3
23
0C
E4
2D
02
25
EE
E1
E3
E7
EE
3E
1F
DC
E4
0D
CA
FE
FC
04
36
E0
CE
07
D9
E0
00
E4
1D
E9
07
E4
CA
03
E7
DF
DF
12
D8
D7
C7
CE
F1
0D
C3
E5
44
43
35
24
26
13
21
15
17
2A
49
1A
31
28
0B
F9
F0
39
38
1B
59
FE
0D
FE
ED
E7
04
F8
F0
FF
DD
F4
F1
15
08
F6
F6
E1
E7
0B
D2
C8
F0
DF
E2
20
DB
CD
EA
E1
D1
ED
0F
31
D8
E9
EF
D5
F6
06
17
FE
01
02
02
FF
02
01
02
30
57
52
56
2A
5B
2D
4A
23
51
62
3C
3F
42
65
37
0E
1D
16
10
20
1D
3B
34
2A
0C
0A
02
2A
FC
2B
11
0D
14
1A
1B
23
12
2D
21
03
19
19
0A
25
42
52
14
FF
02
01
02
00
02
01
02
2D
F9
2C
2A
11
F7
01
09
1A
DD
14
1B
34
24
18
E5
F3
F6
1C
11
37
2A
29
1A
FC
D9
21
2B
2C
10
2C
11
F6
D6
F7
02
28
29
F9
FC
D0
E8
F8
F0
FE
07
ED
F2
B5
C5
FD
F7
EB
CE
1E
C6
D7
DE
BA
BB
F7
D5
EC
E2
2C
F4
01
20
F4
2A
FC
C5
FD
1F
14
EB
10
23
19
EF
FF
00
00
25
31
28
15
1D
0B
14
19
48
22
22
20
23
DB
E5
14
1B
4E
2B
F1
EA
F2
06
F9
0B
24
05
F8
F1
28
F6
FD
0C
18
DD
29
16
0D
13
FF
03
F1
FD
37
F8
0A
F7
31
F9
03
36
F9
0F
2E
FE
25
2C
40
30
06
30
15
0B
04
2B
34
2F
14
35
C8
0D
17
13
2B
18
37
00
F2
FE
F7
1C
07
0F
ED
09
E0
18
DE
16
10
F7
0F
1E
07
DA
DC
05
F3
08
D4
E4
F1
D9
07
0D
19
14
EC
22
17
2C
05
13
17
0F
10
1A
09
FE
29
1F
41
1B
2B
F5
04
20
00
3D
1F
21
41
1B
F8
E4
14
04
31
4E
23
0A
D0
DC
03
D9
2A
2A
0C
D5
05
DA
06
20
1F
19
0A
E2
DF
09
03
15
FB
D9
05
1D
FC
E5
C7
FA
D5
C5
CD
13
32
27
29
12
3A
1F
42
EF
D7
1D
23
F6
28
22
3E
16
F6
32
2A
1E
21
32
17
18
06
25
1A
2A
38
2F
20
ED
0E
13
0D
09
09
3F
E7
19
F3
DA
EA
D6
15
11
10
BF
F3
FC
FD
D6
02
0B
36
F1
1C
09
FA
CC
00
DE
23
F3
01
FE
02
FE
00
FF
FF
FE
0A
39
31
08
1B
4E
2C
21
11
2A
17
10
F6
3A
1A
20
25
23
18
15
19
1E
40
07
31
4D
0A
1C
03
47
65
33
4A
2B
47
4D
39
59
53
50
5A
43
1B
49
3D
42
34
2D
02
FE
FE
FF
FE
FE
FF
FF
E0
DE
EA
EF
D3
C5
E1
E1
EF
AB
EA
DA
D6
C4
BD
EB
BD
D1
04
F0
E4
EB
E2
C9
F4
F2
02
F3
00
FF
F1
D4
F6
0A
15
28
15
3F
13
1E
F1
07
16
2C
07
31
2E
13
0D
F0
1C
1A
40
1F
11
EE
D4
04
FE
01
21
F1
23
14
E0
E8
F4
01
E2
EA
F5
2D
F3
EC
34
E7
F8
03
19
1E
21
20
06
1B
11
17
FD
E2
20
36
0D
2A
13
1C
E7
05
CD
25
22
29
1F
35
11
21
FE
13
18
22
23
34
41
1A
0C
4A
29
09
F0
2A
28
15
FA
E3
03
F9
3F
F7
F3
1D
EB
E6
ED
ED
F3
09
00
14
CD
EC
CC
F2
E6
D2
E7
1B
0E
E3
1D
07
E1
E7
0B
F7
FA
0B
19
05
F0
22
F5
EB
F2
2A
1A
2E
2A
1F
33
0D
27
22
46
3F
3D
2A
21
2F
34
42
18
3E
22
42
42
1D
30
02
32
3E
16
1B
1C
30
24
EE
E7
F6
D4
CE
F1
02
EF
EA
EE
E3
F4
2A
D0
03
1A
EB
03
F9
19
EF
FE
29
D6
02
E5
1C
22
23
1E
1D
D3
F6
34
31
08
3C
12
16
03
E7
2A
44
0A
40
30
0D
1E
F3
1A
00
22
46
05
27
27
20
F6
34
31
3B
34
18
FD
52
2E
CC
D7
DC
11
F6
F2
E5
F9
F5
EF
D7
0A
E8
DB
05
10
18
DC
EB
F9
C7
0B
F7
0E
28
31
08
17
13
04
27
1D
20
0B
1A
17
17
24
2A
00
38
41
2B
2A
2A
E6
1F
3F
1F
37
2F
1F
F4
EB
27
1F
25
25
0C
00
E7
00
FE
FF
FF
FE
02
01
FF
E4
C2
B9
C7
DC
AD
D4
C1
EE
C2
B7
D5
D4
D2
B6
DB
07
0B
01
FF
F3
00
DD
EA
F1
1C
1F
24
09
22
F4
15
23
0B
00
09
08
12
FC
0D
18
05
F1
04
0A
EF
CE
1A
00
01
FF
01
01
FF
FF
01
D4
09
D8
D9
F5
14
FF
EF
EB
22
03
F3
D2
E3
EB
25
12
11
EB
F9
D7
DD
DE
ED
0D
34
F5
F0
DB
FD
D9
F9
12
34
17
06
F2
EF
0A
14
35
2C
1B
1F
16
07
1B
10
49
3D
16
20
20
30
FE
39
25
2C
49
47
1F
3B
17
22
DD
0E
05
E5
0E
E1
07
36
0A
E4
FA
18
06
E4
EF
14
08
09
0A
E4
D7
E3
F2
F2
FA
F9
FB
D0
ED
E7
E5
EC
1F
24
F6
F2
C3
EC
13
1B
13
FF
18
FE
F5
19
15
11
DB
20
0E
05
F9
27
F2
EF
F9
F5
1B
13
1E
1E
D2
04
0C
12
D6
17
04
E1
19
F4
E0
0C
E0
DF
CD
D9
08
D9
F9
FF
04
DC
E0
DF
FB
D0
39
FE
EE
F2
EC
F4
D7
0D
16
05
20
FC
FE
F8
22
02
2B
EE
27
F5
FE
12
0A
E6
0F
2B
2C
16
15
01
43
2D
2F
3F
06
0E
03
06
37
02
F2
E2
09
F1
EC
F5
EF
EC
F9
0A
E5
E9
D5
ED
DC
08
0B
FD
13
E3
F0
EA
D8
F2
0B
27
FE
0A
DE
C1
E8
01
3F
20
07
29
F0
E0
F5
2E
FD
33
03
F5
EB
FA
01
25
25
15
22
FB
15
2A
00
E6
08
1E
3A
24
2A
42
3C
ED
D1
E5
E3
EF
D6
EC
D2
11
28
EB
EE
0D
E1
F1
D7
F9
0A
DF
E1
EE
E1
DA
F5
F0
FA
E2
FC
E9
E7
EE
F9
2B
FF
F5
F3
FD
FC
DD
32
F9
11
2D
22
3D
F8
02
FF
51
19
12
1A
2E
17
18
F1
2B
EF
15
12
40
1B
45
05
4C
01
FF
02
FF
00
FE
FE
FE
0C
34
2C
08
1B
4B
29
1E
10
26
18
15
F3
38
17
1B
20
24
16
11
17
1F
3A
07
2D
48
07
1D
04
43
60
31
45
29
42
4D
37
56
50
4C
58
41
19
49
3D
40
30
2A
00
02
FE
02
00
01
FE
00
E0
DD
EB
F1
D5
C6
E1
E3
F0
AE
EA
DB
D9
C9
BB
EB
BE
CF
05
EF
E5
E9
E3
CE
F5
F4
00
F5
FE
00
EF
D6
F6
0C
14
2A
14
3F
11
1B
F3
06
13
2B
06
32
2D
10
0A
F3
1A
1A
3C
1B
0E
F1
D7
06
FD
00
1E
F0
21
15
E2
E6
F5
02
E4
EE
F5
2D
F6
ED
33
E9
F7
03
18
1E
21
1D
07
1A
0D
17
FE
E5
1F
32
0C
27
14
1A
EC
05
CD
25
1D
25
1C
33
11
22
FF
14
16
20
25
35
41
1B
0E
44
2A
09
F3
2A
27
11
F9
E4
05
F9
3C
F7
F3
1E
EF
EA
F2
EC
F5
0A
FF
14
CE
EC
D1
F4
E4
D4
E7
1A
0D
E2
1C
09
E4
E5
0B
F7
FB
0D
19
05
EF
20
F5
ED
F5
28
1A
2E
27
1D
2E
0A
27
20
41
3B
3A
29
20
2C
30
3E
15
3E
23
42
41
1B
2D
02
31
3B
17
19
1B
2E
1F
F2
E8
F6
D4
CE
F1
00
F0
EC
F3
E5
F5
26
D4
03
19
EB
03
F6
17
ED
FD
28
D7
01
E7
1A
1F
22
1B
18
D7
F5
36
30
0A
38
11
18
03
EB
29
41
0A
3D
2A
09
1D
F2
19
FF
1E
42
06
26
21
20
F9
2F
30
3A
31
13
FA
4C
2B
CD
DA
DE
10
F8
F3
E8
F8
F6
F1
D6
0B
EA
DD
08
10
17
DD
EC
F9
C9
0E
F4
10
27
2F
08
18
12
01
27
1C
20
0A
19
18
14
23
24
01
36
43
27
2C
2A
E6
1C
3E
1D
37
2E
1F
F3
EE
24
1F
22
24
0B
FF
E8
00
00
FE
00
FE
FF
FF
00
E4
C4
BB
CB
DD
B1
D6
C6
F0
C3
B7
D6
D4
D0
B7
DD
05
09
FF
01
F3
00
DD
EB
EF
17
1B
23
08
1F
F5
14
1E
0A
01
05
0A
10
FF
0D
17
03
F0
05
0B
EF
CE
17
FF
FE
00
01
01
FE
01
FF
D5
08
D7
DC
F5
14
00
F1
EC
20
03
F4
D5
E2
EC
23
12
0F
EF
F9
D5
DE
DE
ED
0B
31
F5
F1
DF
FE
DC
F8
11
31
13
05
F5
F2
08
0F
33
2D
1A
1D
14
07
17
12
47
3C
17
1D
1E
2C
FB
34
24
28
48
43
1D
38
19
21
E2
0A
07
E6
0E
DE
04
34
0A
E5
F8
17
02
E4
EF
15
06
0B
08
E8
D8
E6
F0
F2
F8
FC
F9
D0
EE
E9
E5
EB
1F
23
F5
F4
C9
ED
15
1D
14
FE
15
FD
F5
15
12
12
DC
20
0F
06
FB
29
F2
F0
FB
F5
17
11
1C
1E
D1
04
0C
0F
D7
17
03
E7
16
F5
E2
09
DE
E3
CE
DC
05
D8
F8
01
02
E0
E3
E0
FB
CF
39
FE
ED
F2
EE
F5
DC
0B
12
05
20
FC
FC
FA
1E
FF
2B
EF
25
F1
00
10
0C
E7
0E
2A
2C
17
13
02
40
2E
2C
3B
06
0C
03
06
32
00
F2
E4
0A
F0
EF
F4
EF
E9
F9
0A
E3
E9
D9
EF
DD
08
09
FC
16
E6
F0
EB
D8
F1
0D
26
FE
0D
DF
C2
EB
FF
3C
1F
04
28
EF
E1
F6
2E
FD
33
05
F3
EC
F9
FF
20
28
12
20
FD
10
27
00
E9
07
1D
37
21
2A
3F
3D
F2
D6
E7
E4
F0
DB
ED
D6
11
29
ED
F1
0E
E4
F1
D5
FC
08
E0
E3
F0
E2
DA
F6
F1
FC
E0
FC
E7
E7
ED
FA
2A
FF
F9
F4
FC
FC
DE
2F
F8
11
2C
1E
3B
F6
01
FF
4F
1A
0F
19
29
17
19
F2
2B
F0
15
0F
41
19
43
05
48
FE
01
01
FF
FF
00
00
FF
1F
F3
FE
01
E9
C8
F3
06
12
FB
03
08
1E
E1
10
FB
F6
00
03
05
0D
FB
E4
1E
E6
C8
0A
02
16
D6
C8
F7
D3
F4
D4
C4
DB
C1
C2
D6
B2
CD
F5
E1
CE
CB
D7
E1
FF
02
FE
FE
FF
00
02
01
22
2E
22
19
33
42
26
22
13
51
22
2C
34
3B
47
20
39
3B
31
22
20
28
27
39
0D
1B
04
12
14
14
17
2D
0E
03
F5
E8
00
CE
FA
F2
10
FD
F5
DC
FE
D7
E1
F2
F7
12
E9
E9
C9
EB
F5
19
2B
FF
03
05
F8
0D
DF
ED
1E
21
1B
18
23
2E
0B
DE
15
26
D5
25
1A
0B
F6
F0
E2
EF
03
F6
09
F7
1C
24
EE
CC
FF
E4
FE
F0
1C
03
37
EE
E9
E8
EB
DB
02
E4
10
FA
F9
E3
E5
DA
D1
EC
FF
DC
DC
FC
12
E5
DB
F2
0D
20
FC
06
B9
09
10
E3
2A
23
23
2A
22
13
1F
0D
38
1B
3C
1B
20
3C
1F
05
0A
29
EF
FE
29
20
FB
0E
0F
F7
F7
05
18
E7
13
1B
18
DF
ED
DA
DE
E3
D7
F8
E7
E7
C7
C6
CD
E2
E4
DC
EB
D0
F4
C5
EF
D5
CA
E7
D8
0F
DD
C9
F2
F9
F2
E0
E0
15
1C
1D
34
34
10
10
15
1F
1A
2C
23
DF
31
09
EF
24
07
13
F4
20
0F
E6
2D
05
25
F0
E5
E4
EA
F0
38
1E
DF
E5
0B
CF
FF
FD
03
30
E3
D1
07
DC
E2
FF
E6
1A
EA
06
E7
CC
02
EB
E0
DD
13
DC
D9
C9
D0
F4
0B
C7
E7
3E
40
31
24
24
14
1F
15
17
27
44
17
2F
25
09
F9
F3
35
37
18
53
FF
0D
FE
EB
E9
01
FA
EE
FF
DF
F7
F4
16
07
F8
F4
E4
E5
09
D5
D1
F3
E0
E2
1E
D8
CE
EB
E2
D4
F0
0E
2F
D9
EA
F2
D9
F4
04
17
01
FF
00
01
02
01
FF
00
2D
52
4B
54
26
59
2E
46
21
48
5B
3C
36
3C
61
34
10
1A
16
10
21
1D
3D
32
25
0B
08
03
29
FF
2A
10
0E
14
17
19
21
13
2C
1E
02
18
1A
0C
25
3F
4E
14
01
FE
FF
02
02
FE
FF
00
29
F8
29
25
0E
F4
01
13
17
DC
14
1C
34
23
14
E6
F4
F7
1A
11
34
28
27
1A
FB
DB
1E
27
2A
0D
2F
0F
F6
D7
F8
03
28
26
F8
FF
D3
EA
F7
F3
FF
09
EF
F3
BA
C7
FD
FA
EA
CE
1C
C6
DA
DE
BA
BC
F8
D4
EC
E0
2A
F3
04
1E
F3
25
FB
C9
FC
1C
0E
EA
12
20
15
F0
FF
FE
FD
24
2D
28
16
1B
0E
11
1A
43
22
20
20
22
DB
E6
12
17
48
2B
EF
ED
F4
08
FA
0C
22
05
F8
F2
2A
F8
FB
0C
14
DE
27
15
09
10
01
01
F0
FD
36
FE
0A
F4
31
FA
FF
35
FB
0E
29
01
27
2B
3D
2A
08
2F
14
0D
07
26
2D
2E
12
36
CA
0F
19
14
29
18
36
FE
F3
FE
F7
1D
06
0F
EE
0A
E6
16
DF
17
12
F8
0F
1D
07
DD
E0
06
F5
0A
D5
E4
F2
DE
06
0C
16
14
EB
21
15
2A
03
12
17
14
0B
15
09
FE
27
19
3A
19
27
F8
02
1D
00
39
1F
1D
3B
1E
F8
E7
11
03
2E
4D
23
05
D2
DE
04
DB
29
2A
0C
D5
05
DA
05
1B
1D
18
0A
E4
E1
06
01
14
FD
DC
08
1D
F9
EA
CA
FA
DD
C7
CE
0F
30
22
24
15
35
1D
3D
EF
DA
1D
22
F6
28
20
3B
18
F8
2D
27
1E
23
34
16
18
07
23
18
28
32
2C
1D
F1
0E
13
11
08
06
3E
E6
1B
F0
DD
ED
D6
14
10
11
C2
F2
FB
FD
D7
01
08
33
F3
1A
09
FA
CC
04
E0
20
F4
FF
FE
FE
FE
02
02
FE
FF
0D
3B
34
07
1B
51
2C
23
14
2C
18
12
F3
39
18
1F
25
24
19
13
18
1F
41
07
31
4D
07
21
05
4B
64
34
4B
2D
48
50
38
5A
58
50
5B
41
1C
4A
3F
44
32
2D
FE
00
01
00
00
01
01
FF
DE
D8
E9
F0
CF
C2
E3
DE
F2
A6
E9
DB
D3
C3
BA
EC
BC
CD
03
EE
E5
EB
E2
CA
F6
F3
FF
F3
00
FE
EF
D2
F7
0D
18
29
14
42
11
1E
F0
08
18
2E
08
34
33
11
0C
EE
1D
1C
42
1C
14
EC
D4
04
FB
01
1F
F0
25
17
DD
E3
F1
04
E3
E9
F5
30
F3
EB
37
E6
F9
03
18
1F
24
23
04
1F
12
16
FB
E1
1F
36
0C
2A
14
1F
EA
04
CA
24
20
27
21
37
14
23
FC
13
19
24
26
39
41
1B
0C
48
2D
08
F3
2A
2A
13
F9
E4
04
FB
3D
F7
F3
20
EC
E9
EE
F1
F4
0A
01
16
CD
EA
CB
F1
E3
D1
E7
19
0D
E3
21
07
E2
E7
0D
F9
FB
0E
1A
05
F1
24
F3
ED
F5
2B
1C
2F
2D
20
35
0B
2C
1F
48
40
3F
2D
25
2F
32
46
15
43
24
46
46
21
33
03
34
3C
16
1B
1D
30
22
EE
E8
F6
D2
CD
EF
03
F0
E8
EF
E1
F7
2C
CF
02
18
EA
05
F6
1C
EC
FF
2D
D8
01
E5
1C
24
25
1F
1A
D1
F6
37
33
0C
3D
12
17
05
E9
2C
45
0C
41
2F
0D
20
F3
1C
FE
21
45
07
2B
23
21
F5
36
32
3B
35
15
FB
51
2F
CA
D6
DC
12
F6
F2
E7
FA
F5
EE
D4
0C
E9
D9
07
12
19
DB
EB
FA
C8
0B
F8
0F
2D
32
09
1B
13
05
29
1A
22
0B
1B
17
16
24
27
01
37
45
2D
2B
2E
E2
21
41
1E
38
32
23
F3
E9
25
20
23
29
0E
00
E8
FF
FE
FF
01
00
FF
01
01
E1
C2
B6
C5
DC
AA
CF
C2
F0
C0
B4
D7
D0
D1
B3
DD
05
08
FF
FF
F1
FF
DD
EB
EE
1B
21
28
08
24
F4
14
24
09
01
07
0A
14
00
0E
15
04
F2
06
0A
EF
CC
1B
FF
01
FF
FE
FF
FF
FF
02
D3
08
D8
D9
F6
15
FF
F0
EB
20
03
F0
CF
E1
EA
25
14
11
EB
FA
D3
DA
DF
E9
0D
33
F5
EF
DB
FD
D8
F8
11
33
16
06
F5
F1
09
13
37
2D
1B
1D
17
09
19
10
4E
3E
16
21
20
2F
FC
39
26
2B
4B
49
1F
3B
1B
22
E0
0C
07
E5
0E
DE
06
3A
08
E2
F9
19
02
E6
EF
15
07
0B
09
E4
D4
E3
F0
F3
F7
FB
F9
CF
F0
E7
E6
EB
20
24
F8
F2
C3
EA
15
1E
12
FE
1A
FF
F5
18
15
10
DB
1F
10
04
FC
2A
F2
EB
F8
F5
1A
11
21
20
D0
04
0F
10
D7
18
03
E2
19
F9
DF
0C
DD
E1
CB
D8
07
D6
FA
01
02
DF
E0
DC
F9
D0
3C
FB
EF
F2
EB
F3
D9
0B
14
06
22
FC
FD
F8
1F
FF
2B
EF
2A
F5
00
13
0C
E4
0F
2B
2F
16
16
03
45
2F
31
3F
09
10
05
08
38
04
F0
E1
09
F2
EE
F4
EF
E7
F6
0A
E3
E8
D3
ED
DA
0A
0A
FD
15
E4
F0
EA
D8
F2
0A
29
00
0A
DD
C0
E8
00
41
22
06
2A
EF
DF
FA
30
00
38
05
F3
ED
FC
00
23
2A
14
26
FC
13
2D
FE
E7
07
1E
3D
24
2B
41
40
F1
D3
E4
E1
ED
D6
EB
D0
10
29
EA
F0
0F
E1
F1
D6
F9
09
DD
E2
ED
E1
D9
F6
EF
FA
E1
F9
E8
E5
ED
F8
2B
FD
F6
F4
FC
FC
DA
30
F7
13
2E
25
42
F8
FF
00
51
1A
13
1C
2D
17
19
F1
2E
F2
16
10
42
1F
49
04
4B
FF
FE
00
00
00
FF
01
00
1F
F0
FB
04
EA
CA
F3
05
11
F9
04
07
1C
E3
10
FB
F6
00
04
05
09
FD
E5
1C
E2
C6
08
02
18
D8
C6
F3
D2
F7
D2
C5
DC
C0
C3
D5
AE
CD
F5
E0
CD
C8
D7
E3
FE
02
FF
FF
FF
02
FE
01
21
31
26
15
33
47
27
20
17
5C
22
2D
38
41
48
1F
3F
39
31
21
24
2C
27
3B
0C
1C
07
11
13
12
1C
33
0D
04
F4
EA
FF
CB
F8
F0
12
FE
F0
DE
01
D8
E2
F2
F7
13
E8
E7
C6
EC
F1
1A
2C
FF
03
07
F8
10
DF
EC
23
20
1D
16
26
30
0B
E1
17
28
D6
25
19
0D
F8
EF
DF
F1
05
F6
0A
FA
1A
2A
EE
CE
04
E3
FD
EF
1D
07
3A
EF
EA
E7
E9
DC
00
E4
0F
F9
F8
E5
E5
DB
CF
EA
FF
DB
D9
F9
15
E9
E0
F3
0B
17
FF
08
CA
0A
14
E2
2C
22
24
2B
24
16
20
0C
3A
17
3F
19
24
3E
1F
03
0B
2A
ED
00
29
22
FD
0D
0D
F7
F9
07
18
EA
14
20
19
DC
ED
D8
DF
E0
D9
FB
E5
DB
C8
C4
CE
E4
E6
DE
EC
CF
F5
C6
EF
D7
C9
E8
DA
10
DA
C8
F2
F9
F1
E1
E3
18
1B
1C
34
35
14
0F
14
1E
20
2C
22
DE
31
07
EA
27
0A
13
F4
21
0A
E6
2C
01
23
EE
E5
E2
EA
EF
3E
1D
DF
DF
0C
CC
00
FE
05
33
DE
CC
08
DA
E3
02
E5
1B
E9
06
E3
CC
02
E8
E0
DF
14
D8
D7
C8
D0
F4
10
C7
E7
43
40
32
22
25
13
1D
16
15
27
45
19
30
27
09
F8
EE
38
38
1A
4F
00
01
FF
F0
E9
03
F7
F2
00
DE
F8
EF
15
06
F4
F9
E2
E7
07
D5
CF
F2
DE
E3
23
D8
D0
EA
E0
D4
ED
11
30
DC
E7
F1
D9
F6
04
18
FE
02
01
00
00
FF
FE
FE
2E
55
4B
50
28
56
32
4A
25
4C
5F
3E
3B
3F
65
30
10
1D
18
10
1F
1F
3B
33
2A
0B
09
02
2C
FE
25
12
0C
12
19
16
23
14
2D
20
03
18
16
0A
24
42
50
13
01
01
02
FE
02
FF
00
00
2D
FB
2B
25
11
F2
03
0A
19
DD
13
1C
33
23
15
E6
F0
F1
17
13
34
2C
2A
1A
FE
DA
1F
29
2F
11
2A
11
F8
D9
F8
03
26
28
F7
FF
D0
EB
F7
EF
FF
09
ED
F3
B6
C4
FE
FA
EE
CF
1D
C5
DB
E0
BC
BF
F4
D2
F0
DF
2A
F5
04
1C
F2
27
FB
C8
FA
20
13
EB
13
20
17
EF
FF
FF
00
22
2C
25
14
1C
0A
12
16
44
22
24
20
24
DF
E7
11
1C
48
2B
F1
EC
F4
0B
FD
0D
22
05
F6
EF
26
F9
FC
0E
14
DF
28
16
0D
0E
02
03
EF
FC
35
F9
0A
F5
2F
F9
03
35
FA
0D
2D
FF
25
2B
3C
2B
09
31
17
0E
03
2B
30
2E
14
36
CA
0E
1A
14
2A
18
35
FD
F8
FF
F7
1C
07
0E
EC
08
DF
18
DD
17
12
F8
0E
20
06
DB
DD
05
F0
09
D6
E4
F3
DC
05
0C
19
14
EC
21
17
28
03
12
19
0F
0E
18
0B
FD
29
1D
3E
1B
27
F8
03
1B
00
38
1F
1F
3C
21
F7
E5
12
03
2E
4C
23
06
D2
DF
04
DC
29
2D
0B
D7
02
D9
07
1C
1B
1B
07
E4
DD
06
03
15
FD
DA
07
1C
FC
EB
C7
FB
DD
C9
CD
12
31
26
27
12
36
1E
3F
F1
DA
1D
21
F3
25
23
3B
15
F8
30
29
1E
23
35
17
1D
09
21
1B
27
36
2B
1E
EE
0C
10
09
0C
08
3C
E7
19
F0
DB
ED
D6
14
11
10
C1
F5
F7
FC
D8
02
0C
34
F3
1B
05
F8
CD
02
E0
22
F3
FF
02
FF
00
00
00
FE
00
0D
38
32
06
19
4D
2A
22
12
28
17
13
F1
37
18
20
23
25
16
12
18
1E
3D
08
30
4B
06
1C
03
45
62
34
48
2B
44
50
38
57
56
50
57
42
1C
4B
40
42
30
29
FF
00
01
00
01
02
01
02
DD
E1
EA
F0
D4
C3
E3
E2
EE
AC
EA
D8
D4
C6
B9
ED
BB
CD
05
F2
E6
E9
E4
CC
F4
F5
01
F2
FD
01
F0
D5
F7
0D
18
29
13
3F
11
1B
F2
09
14
2D
08
30
2E
14
0D
F0
1E
1B
3D
1F
12
F0
D4
07
FE
FE
21
F2
21
16
E0
E5
F1
00
E2
EB
F9
2F
F4
EF
34
E9
F9
00
1B
1F
22
1D
07
1A
0E
15
FC
E4
21
35
09
28
12
1C
E9
05
CD
25
20
25
1D
35
11
1E
FE
12
18
21
27
34
41
1B
0D
47
2B
09
F2
2C
24
12
FA
E4
07
FB
3A
F7
F3
1C
EC
E6
EE
EF
F4
09
02
15
CF
E9
CD
F1
E6
D2
E7
1B
0D
E4
20
06
E0
E6
0E
FA
FD
0E
1A
07
EF
22
F4
EF
F6
29
1D
30
2B
1F
32
0A
2A
21
44
40
39
2A
25
2D
32
42
15
3E
21
43
40
1C
33
03
31
3B
18
1C
1B
2F
22
EF
E8
F5
D4
D0
EF
01
EE
EA
F0
E2
F5
28
D2
02
1A
EB
04
F6
1B
ED
00
2B
D5
02
E3
1A
21
22
1F
1D
D6
F7
35
30
0A
3B
12
18
07
E8
2A
40
09
3E
2F
0C
1B
F3
1B
00
22
44
0A
27
27
22
F8
34
32
39
34
15
FC
4F
2C
CA
D8
DD
11
F6
F0
E8
F9
F5
EF
D5
0C
E9
DD
08
12
1B
DF
ED
FC
C9
0C
F4
0F
2B
2F
09
18
14
04
27
1C
21
0A
19
15
15
24
27
02
33
43
2A
2A
2A
E5
20
40
1D
35
2D
20
F3
EA
26
1F
25
26
0E
00
E7
FF
01
FF
00
01
FE
FF
01
E2
C4
B9
C7
DD
AE
D1
C5
F0
C2
B6
D8
D1
D0
B5
DD
07
08
00
FF
F1
00
DD
EB
F1
1A
20
26
09
23
F6
14
1F
09
00
07
0A
11
FF
0D
15
03
F0
03
0A
ED
CE
1A
02
FF
02
02
02
FE
FF
01
D4
06
D6
D9
F5
18
FE
EF
EC
23
04
F2
D4
E3
ED
21
12
13
EF
FA
D6
DD
E0
EA
0D
32
F5
F1
DF
FF
D9
F8
13
33
14
03
F5
F2
0C
0F
32
2B
19
1C
15
05
18
13
4B
3D
17
1E
22
2B
FD
39
24
2B
4C
45
1F
39
18
1F
DE
0B
05
E5
0E
E1
07
36
0A
E2
FA
19
05
E2
F0
13
05
08
09
E8
D9
E3
F2
F4
F8
FA
FD
D0
ED
E8
E6
EB
22
25
F8
F2
C6
E8
15
1C
15
FD
16
FD
F5
19
12
10
DC
20
0E
03
FA
29
F5
F0
F9
F6
1B
12
20
1E
D3
08
10
0F
D8
19
03
E4
17
F8
DF
0D
DF
DF
CA
D9
08
D9
F8
01
03
DD
DE
DE
F8
CF
3A
FD
EF
F1
EC
F5
D9
09
16
08
21
FB
FB
F9
1F
FF
2A
EE
28
F5
FE
12
0A
E7
10
29
2E
16
16
00
41
2C
2F
3C
0A
0E
04
04
35
03
F2
E2
0A
F1
EF
F4
EF
EB
FA
0B
E6
E8
D5
F0
DC
08
0B
FC
15
E6
F1
EA
D9
F1
0C
29
00
0A
E0
BF
EA
02
3D
23
06
27
EE
E3
F6
2D
FD
32
07
F3
EB
FB
02
24
25
13
22
FD
15
2B
00
E6
0A
1D
39
25
29
3D
3E
F0
D4
E3
E3
EE
D7
EB
D3
10
28
ED
EE
0E
E4
F2
D7
FB
08
DF
E3
EF
E1
DC
F4
EE
FB
E0
FA
E7
E6
EF
FB
2C
FD
F6
F3
FD
FB
DB
31
F8
13
2E
23
3E
F7
00
FF
51
18
12
1A
2E
1A
18
EF
2D
F3
13
13
42
1A
48
04
4A
02
01
01
00
FF
02
01
FE
0D
35
30
0A
1B
49
2A
20
0F
27
18
12
F6
38
17
1E
22
21
16
13
16
20
3E
08
30
4B
07
1C
05
45
5F
33
47
2C
48
4B
39
58
53
4E
57
3F
1A
4A
3D
43
31
2B
FF
FE
02
02
FF
01
FF
01
E1
DB
EA
F0
D1
C3
E2
E2
F3
AD
EA
DA
D5
C5
BC
ED
C0
CF
04
F1
E6
EB
E3
CD
F5
F6
03
F3
FD
FD
F0
D5
F5
0B
15
29
15
3B
12
1D
F0
07
14
2A
08
31
2F
12
0A
EE
1D
19
3D
1E
0F
F0
D4
06
FA
00
1E
F3
21
14
E1
E8
F3
03
E5
EB
F7
2C
F3
EF
34
E8
F6
00
18
20
23
1F
04
19
0E
17
FE
E4
20
36
0C
27
14
1E
E9
05
CD
22
20
26
1D
31
15
1E
FF
14
17
20
24
35
41
1C
0B
43
28
09
F3
29
26
12
F8
E6
06
F9
3C
F8
F5
1F
ED
E9
EF
EF
F4
09
FF
13
CF
EC
CD
F3
E6
D5
E7
1A
0C
E6
1C
07
E2
E8
0B
F7
FB
0E
1A
04
EF
23
F5
ED
F6
27
1C
2C
2A
20
31
0D
28
1E
46
3E
3A
2B
20
2E
31
40
14
3C
22
44
42
20
31
04
30
3D
15
18
1B
2D
20
EF
E6
F5
D7
D1
F1
01
F0
EA
EE
E3
F5
2A
D3
00
16
EC
04
F8
17
ED
FF
2B
DA
00
E4
1B
1F
21
1F
19
D5
F6
36
2E
09
3A
11
17
05
EB
2C
3F
0A
3F
2D
0A
1C
F1
1B
FE
21
42
08
26
24
23
F9
31
33
3A
31
15
FB
4D
2E
CA
DA
DD
10
F6
F3
E5
FB
F6
EF
D5
0C
E8
DB
08
0F
17
DC
EB
FA
C9
0C
F6
11
27
2F
0A
1A
13
02
24
1D
1E
0A
19
15
15
24
27
01
33
41
29
29
2A
E4
20
3C
1F
38
2E
1D
F2
ED
24
20
25
27
0B
FF
E6
00
FE
01
FF
FF
FE
02
02
E3
C2
BC
C8
DA
AF
D4
C5
EF
C3
B7
D8
D4
D3
B5
DC
05
09
02
02
F3
FF
DE
EC
F0
1B
1E
25
08
21
F5
16
1F
0A
01
07
08
12
FD
0D
14
02
F2
02
0A
EF
CD
16
02
FE
00
00
FF
00
02
01
D7
05
D6
D9
F4
17
01
F1
EF
20
03
F3
D5
E2
EA
21
11
0F
ED
FA
D5
DC
DE
EB
10
32
F7
F1
DE
FD
D9
F9
11
31
14
05
F4
F2
0A
0F
34
2D
1C
1E
14
06
18
12
48
3C
16
1E
1F
2F
FE
38
23
2B
47
41
1F
39
1A
1E
DF
0D
04
E6
0C
DF
06
34
08
E1
FA
1B
05
E3
F0
17
08
08
06
E9
D7
E5
F2
F5
F6
F9
FB
D0
EE
EA
E8
EA
20
23
F6
F3
C7
EC
13
1B
14
00
17
FF
F2
16
14
12
DA
1F
0C
02
FA
26
F4
EF
FB
F6
17
11
1F
1D
D1
04
10
10
D5
17
05
E5
17
F7
E0
0C
DF
E2
CD
DB
04
D7
F8
00
04
DD
E3
E0
F8
D2
3D
FC
EC
F3
EC
F6
D7
0C
14
08
20
FB
FD
F7
1F
02
2A
EE
25
F4
FE
13
09
E7
0F
2A
2B
16
13
FF
3E
2E
2E
3C
07
0E
02
05
37
01
F2
E3
0A
F2
EE
F2
F2
EB
F8
0C
E3
E6
D6
EE
DB
0A
08
FB
15
E4
F1
EA
D7
F3
0C
26
01
0D
E1
C1
EB
FF
3D
21
04
27
EE
E2
F6
2E
01
33
06
F6
EC
FB
FD
24
28
13
22
FB
13
2A
00
E7
09
1C
3B
21
2C
3F
3F
ED
D5
E6
E2
EF
D8
EA
D3
0F
29
ED
F0
0E
E3
F0
D7
FA
08
DE
E2
EF
E1
DC
F2
F0
FA
E3
FB
E8
E7
ED
FB
2C
FF
F7
F3
FB
FB
DC
30
F8
12
2D
23
3E
F7
FF
FF
50
1B
10
1A
2A
18
18
F2
2B
F0
15
12
3E
18
47
05
48
